{
  "version": "1.0",
  "truncation": null,
  "padding": null,
  "added_tokens": [
    {
      "id": 0,
      "content": "<|pad|>",
      "single_word": false,
      "lstrip": false,
      "rstrip": false,
      "normalized": false,
      "special": true
    },
    {
      "id": 1,
      "content": "<|user|>",
      "single_word": false,
      "lstrip": false,
      "rstrip": false,
      "normalized": false,
      "special": true
    },
    {
      "id": 2,
      "content": "<|assistant|>",
      "single_word": false,
      "lstrip": false,
      "rstrip": false,
      "normalized": false,
      "special": true
    },
    {
      "id": 3,
      "content": "<|end|>",
      "single_word": false,
      "lstrip": false,
      "rstrip": false,
      "normalized": false,
      "special": true
    },
    {
      "id": 4,
      "content": "<|system|>",
      "single_word": false,
      "lstrip": false,
      "rstrip": false,
      "normalized": false,
      "special": true
    }
  ],
  "normalizer": null,
  "pre_tokenizer": {
    "type": "ByteLevel",
    "add_prefix_space": false,
    "trim_offsets": true,
    "use_regex": true
  },
  "post_processor": {
    "type": "ByteLevel",
    "add_prefix_space": true,
    "trim_offsets": false,
    "use_regex": true
  },
  "decoder": {
    "type": "ByteLevel",
    "add_prefix_space": true,
    "trim_offsets": true,
    "use_regex": true
  },
  "model": {
    "type": "BPE",
    "dropout": null,
    "unk_token": null,
    "continuing_subword_prefix": null,
    "end_of_word_suffix": null,
    "fuse_unk": false,
    "byte_fallback": false,
    "ignore_merges": false,
    "vocab": {
      "<|pad|>": 0,
      "<|user|>": 1,
      "<|assistant|>": 2,
      "<|end|>": 3,
      "<|system|>": 4,
      "!": 5,
      "\"": 6,
      "#": 7,
      "$": 8,
      "%": 9,
      "&": 10,
      "'": 11,
      "(": 12,
      ")": 13,
      "*": 14,
      "+": 15,
      ",": 16,
      "-": 17,
      ".": 18,
      "/": 19,
      "0": 20,
      "1": 21,
      "2": 22,
      "3": 23,
      "4": 24,
      "5": 25,
      "6": 26,
      "7": 27,
      "8": 28,
      "9": 29,
      ":": 30,
      ";": 31,
      "<": 32,
      "=": 33,
      ">": 34,
      "?": 35,
      "@": 36,
      "A": 37,
      "B": 38,
      "C": 39,
      "D": 40,
      "E": 41,
      "F": 42,
      "G": 43,
      "H": 44,
      "I": 45,
      "J": 46,
      "K": 47,
      "L": 48,
      "M": 49,
      "N": 50,
      "O": 51,
      "P": 52,
      "Q": 53,
      "R": 54,
      "S": 55,
      "T": 56,
      "U": 57,
      "V": 58,
      "W": 59,
      "X": 60,
      "Y": 61,
      "Z": 62,
      "[": 63,
      "\\": 64,
      "]": 65,
      "^": 66,
      "_": 67,
      "`": 68,
      "a": 69,
      "b": 70,
      "c": 71,
      "d": 72,
      "e": 73,
      "f": 74,
      "g": 75,
      "h": 76,
      "i": 77,
      "j": 78,
      "k": 79,
      "l": 80,
      "m": 81,
      "n": 82,
      "o": 83,
      "p": 84,
      "q": 85,
      "r": 86,
      "s": 87,
      "t": 88,
      "u": 89,
      "v": 90,
      "w": 91,
      "x": 92,
      "y": 93,
      "z": 94,
      "{": 95,
      "|": 96,
      "}": 97,
      "~": 98,
      "¡": 99,
      "¢": 100,
      "£": 101,
      "¤": 102,
      "¥": 103,
      "¦": 104,
      "§": 105,
      "¨": 106,
      "©": 107,
      "ª": 108,
      "«": 109,
      "¬": 110,
      "®": 111,
      "¯": 112,
      "°": 113,
      "±": 114,
      "²": 115,
      "³": 116,
      "´": 117,
      "µ": 118,
      "¶": 119,
      "·": 120,
      "¸": 121,
      "¹": 122,
      "º": 123,
      "»": 124,
      "¼": 125,
      "½": 126,
      "¾": 127,
      "¿": 128,
      "À": 129,
      "Á": 130,
      "Â": 131,
      "Ã": 132,
      "Ä": 133,
      "Å": 134,
      "Æ": 135,
      "Ç": 136,
      "È": 137,
      "É": 138,
      "Ê": 139,
      "Ë": 140,
      "Ì": 141,
      "Í": 142,
      "Î": 143,
      "Ï": 144,
      "Ð": 145,
      "Ñ": 146,
      "Ò": 147,
      "Ó": 148,
      "Ô": 149,
      "Õ": 150,
      "Ö": 151,
      "×": 152,
      "Ø": 153,
      "Ù": 154,
      "Ú": 155,
      "Û": 156,
      "Ü": 157,
      "Ý": 158,
      "Þ": 159,
      "ß": 160,
      "à": 161,
      "á": 162,
      "â": 163,
      "ã": 164,
      "ä": 165,
      "å": 166,
      "æ": 167,
      "ç": 168,
      "è": 169,
      "é": 170,
      "ê": 171,
      "ë": 172,
      "ì": 173,
      "í": 174,
      "î": 175,
      "ï": 176,
      "ð": 177,
      "ñ": 178,
      "ò": 179,
      "ó": 180,
      "ô": 181,
      "õ": 182,
      "ö": 183,
      "÷": 184,
      "ø": 185,
      "ù": 186,
      "ú": 187,
      "û": 188,
      "ü": 189,
      "ý": 190,
      "þ": 191,
      "ÿ": 192,
      "Ā": 193,
      "ā": 194,
      "Ă": 195,
      "ă": 196,
      "Ą": 197,
      "ą": 198,
      "Ć": 199,
      "ć": 200,
      "Ĉ": 201,
      "ĉ": 202,
      "Ċ": 203,
      "ċ": 204,
      "Č": 205,
      "č": 206,
      "Ď": 207,
      "ď": 208,
      "Đ": 209,
      "đ": 210,
      "Ē": 211,
      "ē": 212,
      "Ĕ": 213,
      "ĕ": 214,
      "Ė": 215,
      "ė": 216,
      "Ę": 217,
      "ę": 218,
      "Ě": 219,
      "ě": 220,
      "Ĝ": 221,
      "ĝ": 222,
      "Ğ": 223,
      "ğ": 224,
      "Ġ": 225,
      "ġ": 226,
      "Ģ": 227,
      "ģ": 228,
      "Ĥ": 229,
      "ĥ": 230,
      "Ħ": 231,
      "ħ": 232,
      "Ĩ": 233,
      "ĩ": 234,
      "Ī": 235,
      "ī": 236,
      "Ĭ": 237,
      "ĭ": 238,
      "Į": 239,
      "į": 240,
      "İ": 241,
      "ı": 242,
      "Ĳ": 243,
      "ĳ": 244,
      "Ĵ": 245,
      "ĵ": 246,
      "Ķ": 247,
      "ķ": 248,
      "ĸ": 249,
      "Ĺ": 250,
      "ĺ": 251,
      "Ļ": 252,
      "ļ": 253,
      "Ľ": 254,
      "ľ": 255,
      "Ŀ": 256,
      "ŀ": 257,
      "Ł": 258,
      "ł": 259,
      "Ń": 260,
      "Ġt": 261,
      "Ġa": 262,
      "in": 263,
      "he": 264,
      "re": 265,
      "on": 266,
      "Ġthe": 267,
      "Ġs": 268,
      "at": 269,
      "er": 270,
      "ĠĠ": 271,
      "Ġc": 272,
      "Ġo": 273,
      "en": 274,
      "es": 275,
      "nd": 276,
      "ing": 277,
      "it": 278,
      "is": 279,
      "or": 280,
      "al": 281,
      "Ġw": 282,
      "Ġp": 283,
      "Ġf": 284,
      "ou": 285,
      "ion": 286,
      "an": 287,
      "Ġm": 288,
      "Ġand": 289,
      "Ġto": 290,
      "Ġb": 291,
      "Ġin": 292,
      "ar": 293,
      "Ġof": 294,
      "le": 295,
      "Ġd": 296,
      "ic": 297,
      "ed": 298,
      "ct": 299,
      "Ġe": 300,
      "ent": 301,
      "ro": 302,
      "Ġre": 303,
      "Ġth": 304,
      "st": 305,
      "ĠĠĠĠ": 306,
      "ve": 307,
      "Ġn": 308,
      "et": 309,
      "Ġh": 310,
      "as": 311,
      "Ġl": 312,
      "om": 313,
      "Ġy": 314,
      "Ġis": 315,
      "id": 316,
      "im": 317,
      "il": 318,
      "ce": 319,
      "ation": 320,
      "Ġyou": 321,
      "se": 322,
      "Ġu": 323,
      "ra": 324,
      "Ġst": 325,
      "Ġg": 326,
      "ut": 327,
      "ol": 328,
      "ow": 329,
      "Ġbe": 330,
      "Ġfor": 331,
      "ot": 332,
      "ly": 333,
      "ch": 334,
      "Ġcon": 335,
      "ig": 336,
      "ĠT": 337,
      "Ġthat": 338,
      "ur": 339,
      "if": 340,
      "am": 341,
      "ers": 342,
      "um": 343,
      "ĠĠĠ": 344,
      "Ġor": 345,
      "ul": 346,
      "ĠI": 347,
      "Ġ\"": 348,
      "ith": 349,
      "ate": 350,
      "Ġon": 351,
      "Ġpro": 352,
      "Ġex": 353,
      "qu": 354,
      "Ġas": 355,
      "ir": 356,
      "Ġwith": 357,
      "Ġv": 358,
      "Ġit": 359,
      "Ġan": 360,
      "'s": 361,
      "el": 362,
      "Ġ=": 363,
      "Ġcan": 364,
      "ke": 365,
      "her": 366,
      "ay": 367,
      "ist": 368,
      "ore": 369,
      "ri": 370,
      "ld": 371,
      "pe": 372,
      "ge": 373,
      "un": 374,
      "ad": 375,
      "ction": 376,
      "ess": 377,
      "ver": 378,
      "Ġal": 379,
      "\":": 380,
      "ive": 381,
      "od": 382,
      "ab": 383,
      "Ġare": 384,
      "Ġcom": 385,
      "ity": 386,
      "pt": 387,
      "est": 388,
      "Ġint": 389,
      "Ġsu": 390,
      "Ġ1": 391,
      "ĠA": 392,
      "Ġde": 393,
      "Ġwh": 394,
      "ment": 395,
      "res": 396,
      "ĊĠĠĠĠ": 397,
      "Ġ\\": 398,
      "iv": 399,
      "igh": 400,
      "Ġwe": 401,
      "**": 402,
      "ies": 403,
      "ould": 404,
      "ple": 405,
      "Ġyour": 406,
      "pl": 407,
      "Ġ(": 408,
      "nt": 409,
      "Ġch": 410,
      "Ġne": 411,
      "th": 412,
      "ac": 413,
      "Ġma": 414,
      "ĠThe": 415,
      "us": 416,
      "int": 417,
      "ial": 418,
      "em": 419,
      "Ġhe": 420,
      "ĠS": 421,
      "os": 422,
      "Ġse": 423,
      "pp": 424,
      "Ġha": 425,
      "ight": 426,
      "ant": 427,
      "all": 428,
      "ĠC": 429,
      "ĊĠĠĠ": 430,
      "Ġus": 431,
      "ue": 432,
      "Ġen": 433,
      "ere": 434,
      "Ġr": 435,
      "ill": 436,
      "oc": 437,
      "Ġ2": 438,
      "ect": 439,
      "act": 440,
      "per": 441,
      "ort": 442,
      "Ġle": 443,
      "ud": 444,
      "Ġ$": 445,
      "ations": 446,
      "Ġsh": 447,
      "rom": 448,
      "Ġim": 449,
      "ure": 450,
      "ain": 451,
      "Ġthis": 452,
      "``": 453,
      "art": 454,
      "Ġby": 455,
      "iz": 456,
      "his": 457,
      "Ġwor": 458,
      "The": 459,
      "ide": 460,
      "\",": 461,
      "ence": 462,
      "Ġmore": 463,
      "Ġ-": 464,
      "ine": 465,
      "unction": 466,
      "Ġat": 467,
      "and": 468,
      "ĠP": 469,
      "ult": 470,
      "Ġ+": 471,
      "ions": 472,
      "ust": 473,
      "out": 474,
      "Ġtheir": 475,
      "ical": 476,
      "age": 477,
      "Ġad": 478,
      "Ġfrom": 479,
      "ance": 480,
      "umb": 481,
      "ĠH": 482,
      "king": 483,
      "Ġhave": 484,
      "end": 485,
      "ĊĠĠĠĠĠĠĠ": 486,
      "ĠM": 487,
      "Ġnot": 488,
      "ach": 489,
      "Ġres": 490,
      "ĠW": 491,
      "ind": 492,
      "ex": 493,
      "Ġar": 494,
      "low": 495,
      "ag": 496,
      "ĠB": 497,
      "Ġab": 498,
      "Ġme": 499,
      "og": 500,
      "able": 501,
      "cl": 502,
      "ame": 503,
      "ter": 504,
      "ome": 505,
      "Ġfunction": 506,
      "ĠThis": 507,
      "are": 508,
      "Ġwhe": 509,
      "orm": 510,
      "Ġ{": 511,
      "ff": 512,
      "ther": 513,
      "00": 514,
      "Ġpl": 515,
      "ich": 516,
      "op": 517,
      "so": 518,
      "Ġstr": 519,
      "cc": 520,
      "Ġcont": 521,
      "our": 522,
      "Ġif": 523,
      "Ġ`": 524,
      "Ġcre": 525,
      "Ġcl": 526,
      "ib": 527,
      "ĠF": 528,
      "ip": 529,
      "Ġun": 530,
      "Ġtr": 531,
      "ime": 532,
      "ĠE": 533,
      "ase": 534,
      "ast": 535,
      "Ġ3": 536,
      "rou": 537,
      "Ġnumb": 538,
      "du": 539,
      "ents": 540,
      "ile": 541,
      "Ġfe": 542,
      "Ġdat": 543,
      "Ġalso": 544,
      "Ġval": 545,
      "ount": 546,
      "ack": 547,
      "ard": 548,
      "Ġqu": 549,
      "Ġcomp": 550,
      "Ġcould": 551,
      "ire": 552,
      "ass": 553,
      "ie": 554,
      "ces": 555,
      "Ġwhich": 556,
      "Ġout": 557,
      "form": 558,
      "ory": 559,
      "ang": 560,
      "ary": 561,
      "Ġdo": 562,
      "gh": 563,
      "Ġwill": 564,
      "Ġ**": 565,
      "ĠR": 566,
      "ign": 567,
      "ike": 568,
      "ĠD": 569,
      "ost": 570,
      "ans": 571,
      "Ġimp": 572,
      "Ġem": 573,
      "urn": 574,
      "Ġk": 575,
      "ep": 576,
      "vel": 577,
      "Ġev": 578,
      "ext": 579,
      "ĊĠĠĠĠĠĠĠĠ": 580,
      "ption": 581,
      "Ġj": 582,
      "rit": 583,
      "Ġcons": 584,
      "ress": 585,
      "Ġthey": 586,
      "ell": 587,
      "Ġhas": 588,
      "ks": 589,
      "ific": 590,
      "Ġ'": 591,
      "cri": 592,
      "ice": 593,
      "oo": 594,
      "Ġlike": 595,
      "ative": 596,
      "ating": 597,
      "ition": 598,
      "ype": 599,
      "Ġdata": 600,
      "Ġbut": 601,
      "Ġother": 602,
      "av": 603,
      "Ġret": 604,
      "ous": 605,
      "Ġsc": 606,
      "Ġpr": 607,
      "Ġmake": 608,
      "Ġbet": 609,
      "ated": 610,
      "Ġabout": 611,
      "ound": 612,
      "Ġdis": 613,
      "oint": 614,
      "Ġsuch": 615,
      "Ġneed": 616,
      "ject": 617,
      "Ġper": 618,
      "put": 619,
      "we": 620,
      "Ġhel": 621,
      "ider": 622,
      "Ġrel": 623,
      "Ġsp": 624,
      "one": 625,
      "Ġwould": 626,
      "Ġro": 627,
      "ĠN": 628,
      "```": 629,
      "You": 630,
      "ors": 631,
      "Ġhelp": 632,
      "ĠL": 633,
      "fere": 634,
      "Ġ0": 635,
      "ual": 636,
      "ne": 637,
      "Ġher": 638,
      "ef": 639,
      "}}": 640,
      "ari": 641,
      "Ġchar": 642,
      "Ġspe": 643,
      "ict": 644,
      "Ġwas": 645,
      "ap": 646,
      "**:": 647,
      "ace": 648,
      "Ġprov": 649,
      "Ġinto": 650,
      "rac": 651,
      "Ġapp": 652,
      "clud": 653,
      "ail": 654,
      "str": 655,
      "Ġthem": 656,
      "Ġacc": 657,
      "Ġman": 658,
      "Ġnumber": 659,
      "escri": 660,
      "Ġmy": 661,
      "Ġnew": 662,
      "hat": 663,
      "Ġind": 664,
      "Ġup": 665,
      "Ġsome": 666,
      "nder": 667,
      "Ġreturn": 668,
      "Ġx": 669,
      "Ġte": 670,
      "ential": 671,
      "Ġone": 672,
      "ong": 673,
      "ities": 674,
      "mat": 675,
      "ility": 676,
      "Ġexper": 677,
      "Ġset": 678,
      "Ġadd": 679,
      "Ġtime": 680,
      "arg": 681,
      "Ġpre": 682,
      "Ġpos": 683,
      "Ġpoint": 684,
      "ample": 685,
      "ens": 686,
      "ode": 687,
      "ween": 688,
      "ĠO": 689,
      "Ġits": 690,
      "ates": 691,
      "Ġdif": 692,
      "ise": 693,
      "Ġbetween": 694,
      "Ġlist": 695,
      "Ġke": 696,
      "ph": 697,
      "ues": 698,
      "Ġ4": 699,
      "Ġuse": 700,
      "Ġusing": 701,
      "con": 702,
      "Ġta": 703,
      "Ġunder": 704,
      "Ġcomm": 705,
      "Ġcharact": 706,
      "Ġthese": 707,
      "eg": 708,
      "ys": 709,
      "yth": 710,
      "to": 711,
      "Ġeach": 712,
      "In": 713,
      "Ġover": 714,
      "{\"": 715,
      "Ġwhere": 716,
      "Ġfol": 717,
      "ize": 718,
      "ments": 719,
      "Ġ5": 720,
      "Ġgo": 721,
      "Ġinter": 722,
      "now": 723,
      "()": 724,
      "ĠG": 725,
      "Ġtw": 726,
      "Ġinclud": 727,
      "ll": 728,
      "ry": 729,
      "name": 730,
      "Ġfollow": 731,
      "ord": 732,
      "Ġtra": 733,
      "Ġall": 734,
      "Ġour": 735,
      "val": 736,
      "Ġspec": 737,
      "Ġsy": 738,
      "erm": 739,
      "\":\"": 740,
      "sel": 741,
      "Ġcreate": 742,
      "Ġmat": 743,
      "Ġhow": 744,
      "Ġinc": 745,
      "Ġvari": 746,
      "pect": 747,
      "Ġfind": 748,
      "Ġeff": 749,
      "Ġwho": 750,
      "ĊĠĠĠĠĠĠĠĠĠĠĠ": 751,
      "Ġpart": 752,
      "Ġcol": 753,
      "iven": 754,
      "cess": 755,
      "ays": 756,
      "Ġ{\"": 757,
      "ear": 758,
      "ĊĠĠ": 759,
      "Ġpers": 760,
      "les": 761,
      "):": 762,
      "Ġexpl": 763,
      "Ġconsider": 764,
      "Ġequ": 765,
      "ings": 766,
      "ful": 767,
      "type": 768,
      "ub": 769,
      "Ġdiffere": 770,
      "ics": 771,
      "ft": 772,
      "ange": 773,
      "ient": 774,
      "ob": 775,
      "ram": 776,
      "ĠU": 777,
      "eth": 778,
      "Ġcomple": 779,
      ".\"": 780,
      "Ġso": 781,
      "ree": 782,
      "hip": 783,
      "wn": 784,
      "ience": 785,
      "Ġany": 786,
      "Ġtwo": 787,
      "ose": 788,
      "Ġdet": 789,
      "escription": 790,
      "irst": 791,
      "ally": 792,
      "ark": 793,
      "ĠJ": 794,
      "Ġob": 795,
      "led": 796,
      "ible": 797,
      "ify": 798,
      "Ġass": 799,
      "ython": 800,
      "Ġmod": 801,
      "pon": 802,
      "Ġco": 803,
      "Ġthere": 804,
      "Ġam": 805,
      "ert": 806,
      "ite": 807,
      "ĠIn": 808,
      "'re": 809,
      "Ġrec": 810,
      "stem": 811,
      "Ġmight": 812,
      "Ġmay": 813,
      ").": 814,
      "rough": 815,
      "),": 816,
      "Ġknow": 817,
      "frac": 818,
      "Ġinv": 819,
      "Ġvalue": 820,
      "Ġdist": 821,
      "description": 822,
      "Ġsol": 823,
      "Ġused": 824,
      "Ġstud": 825,
      "row": 826,
      "Ġele": 827,
      "Ġappro": 828,
      "self": 829,
      "ns": 830,
      "Ġprob": 831,
      "Ġpar": 832,
      "Ġhis": 833,
      "gg": 834,
      "Ġquest": 835,
      "ak": 836,
      "erv": 837,
      "\",\"": 838,
      "Ġcor": 839,
      "Ġph": 840,
      "Ġget": 841,
      "Ġwhat": 842,
      "ctions": 843,
      "Ġra": 844,
      "Ġwhen": 845,
      "ild": 846,
      "Ġwork": 847,
      "ased": 848,
      "ĠIt": 849,
      "Ġexample": 850,
      "stand": 851,
      "}{": 852,
      "Ġthan": 853,
      "Ġform": 854,
      "ĠIf": 855,
      "its": 856,
      "Ġ[": 857,
      "..": 858,
      "ove": 859,
      "pport": 860,
      "Ġdef": 861,
      "ular": 862,
      "âĢ": 863,
      "To": 864,
      "ds": 865,
      "velop": 866,
      "Ġdec": 867,
      "elf": 868,
      "eng": 869,
      "reat": 870,
      "get": 871,
      "Ġsent": 872,
      "Ġshould": 873,
      "Ġkey": 874,
      "ution": 875,
      "oth": 876,
      "Ġsub": 877,
      "Ġoff": 878,
      "Ġtrans": 879,
      "ures": 880,
      "Ġsim": 881,
      "oy": 882,
      "Ġshe": 883,
      "Ġcharacter": 884,
      "Ġself": 885,
      "Ġrequ": 886,
      "Ġanal": 887,
      "tool": 888,
      "hes": 889,
      "Ġtext": 890,
      "Ġsign": 891,
      "ning": 892,
      "Ġgiven": 893,
      "Ġrem": 894,
      "Ġprodu": 895,
      "iqu": 896,
      "ov": 897,
      "Ġthrough": 898,
      "Ġpe": 899,
      "Ġperson": 900,
      "uct": 901,
      "Ġrep": 902,
      "ener": 903,
      "ident": 904,
      "'t": 905,
      "ences": 906,
      "Ġread": 907,
      "use": 908,
      "Ġresult": 909,
      "ract": 910,
      "Ġstart": 911,
      "enc": 912,
      "Ġinform": 913,
      "Ġbec": 914,
      "Ġcal": 915,
      "cul": 916,
      "Ġunderstand": 917,
      "Ġdes": 918,
      "ever": 919,
      "uc": 920,
      "ability": 921,
      "Ġsm": 922,
      "ense": 923,
      "Ġ6": 924,
      "Ġexp": 925,
      "ink": 926,
      "Ġcur": 927,
      "Ġ\\(": 928,
      "Ġdisc": 929,
      "rib": 930,
      "Ġreg": 931,
      "Ġide": 932,
      "ĠHow": 933,
      "Ġbeen": 934,
      "olog": 935,
      "Ġcall": 936,
      "Ġreal": 937,
      "Ġfirst": 938,
      "Ġinteg": 939,
      "ily": 940,
      "als": 941,
      "Ġ*": 942,
      "Ġworld": 943,
      "amet": 944,
      "ough": 945,
      "resent": 946,
      "Ġconc": 947,
      "Ġdevelop": 948,
      "Ġwhile": 949,
      "ook": 950,
      "},": 951,
      "Ġsystem": 952,
      "cept": 953,
      "Ġwell": 954,
      "ood": 955,
      "Ġway": 956,
      "ia": 957,
      "Ġatt": 958,
      "Ġwrit": 959,
      "Ġinput": 960,
      "\":{\"": 961,
      "Ġcomplex": 962,
      "ethod": 963,
      "Ġap": 964,
      "ons": 965,
      "Ġrelations": 966,
      "Ġpat": 967,
      "Ġpot": 968,
      "Ġsum": 969,
      "Ġins": 970,
      "Ġ/": 971,
      "(\"": 972,
      "Ġ<": 973,
      "ower": 974,
      "Ġloc": 975,
      "def": 976,
      "Ġdifferent": 977,
      "Ġrelationship": 978,
      "arch": 979,
      "Ġprovide": 980,
      "chn": 981,
      "Ġposs": 982,
      "ting": 983,
      "--": 984,
      "plic": 985,
      "Ġess": 986,
      "Ġfollowing": 987,
      "ric": 988,
      "ĠYou": 989,
      "par": 990,
      "ired": 991,
      "Ġeffect": 992,
      "Ġpotential": 993,
      "anc": 994,
      "ument": 995,
      "Ġlead": 996,
      "Ġfact": 997,
      "ĊĊĠĠĠ": 998,
      "ten": 999,
      "Ġstory": 1000,
      "ĠĊ": 1001,
      "Ġfeel": 1002,
      "How": 1003,
      "Ġact": 1004,
      "Ġwant": 1005,
      "'ve": 1006,
      "ople": 1007,
      "Ġmethod": 1008,
      "Ġref": 1009,
      "ness": 1010,
      "Ġprog": 1011,
      ");": 1012,
      "ish": 1013,
      "ices": 1014,
      "te": 1015,
      "fore": 1016,
      "Ġtechn": 1017,
      "pr": 1018,
      "ocus": 1019,
      "roup": 1020,
      "Ġspecific": 1021,
      "Ġclass": 1022,
      "ĠĠĠĠĠĠĠĠ": 1023,
      "nce": 1024,
      "fl": 1025,
      "Ġeng": 1026,
      "Ġno": 1027,
      "other": 1028,
      "Ġvalues": 1029,
      "Ġplan": 1030,
      "Ġbu": 1031,
      "Ġfl": 1032,
      "Ġart": 1033,
      "Ġnumbers": 1034,
      "Ġhigh": 1035,
      "Ġprovid": 1036,
      "Ġcommun": 1037,
      "Ġvis": 1038,
      "Ġthen": 1039,
      "Ġgener": 1040,
      "Ġrev": 1041,
      "Ġ#": 1042,
      "dition": 1043,
      "ife": 1044,
      "Ġsa": 1045,
      "ional": 1046,
      "Ġca": 1047,
      "Ġtool": 1048,
      "Ġrespon": 1049,
      "ĠFor": 1050,
      "own": 1051,
      "Ġprocess": 1052,
      "Ġcode": 1053,
      "Ġident": 1054,
      "ror": 1055,
      "itive": 1056,
      "ivid": 1057,
      "hen": 1058,
      "der": 1059,
      "hec": 1060,
      "Ġbl": 1061,
      "inal": 1062,
      "Ġpeople": 1063,
      "Ġquestion": 1064,
      "ĠWe": 1065,
      "ĠV": 1066,
      "Ġprint": 1067,
      "Ġboth": 1068,
      "Ġyear": 1069,
      "Ġsee": 1070,
      "Ġfocus": 1071,
      "Ġsense": 1072,
      "ases": 1073,
      "Ġapproach": 1074,
      "'ll": 1075,
      "Ġown": 1076,
      "Ġgu": 1077,
      "wer": 1078,
      "Ġ}": 1079,
      "Ġhand": 1080,
      "What": 1081,
      "Ġ|": 1082,
      "Ġ8": 1083,
      "Ġeven": 1084,
      "Ġdoes": 1085,
      "ray": 1086,
      "lem": 1087,
      "Ġent": 1088,
      "Ġjust": 1089,
      "Ġallow": 1090,
      "ives": 1091,
      "ery": 1092,
      "Ġsoc": 1093,
      "yp": 1094,
      "lect": 1095,
      "Ġproduct": 1096,
      "ied": 1097,
      "Ġmed": 1098,
      "ĠWhat": 1099,
      "Ġcorre": 1100,
      "Ġmult": 1101,
      "Ġincre": 1102,
      "Ġmean": 1103,
      "ater": 1104,
      "ving": 1105,
      "Ġsignific": 1106,
      "raph": 1107,
      "Ġback": 1108,
      "ious": 1109,
      "Ġac": 1110,
      "Ġinformation": 1111,
      "Ġ7": 1112,
      "Ġag": 1113,
      "ustom": 1114,
      "iew": 1115,
      "ts": 1116,
      "Ġtake": 1117,
      "ince": 1118,
      "Ġpol": 1119,
      "pert": 1120,
      ",\"": 1121,
      "Ġonly": 1122,
      "uring": 1123,
      "tern": 1124,
      "Ġ10": 1125,
      "imate": 1126,
      "'m": 1127,
      "Ġfunctions": 1128,
      "Ġterm": 1129,
      "Ġmem": 1130,
      "rent": 1131,
      "ĠSt": 1132,
      "Ġ20": 1133,
      "Ġcle": 1134,
      "ves": 1135,
      "ian": 1136,
      "Ġhad": 1137,
      "Ġgroup": 1138,
      "ique": 1139,
      "Ġmin": 1140,
      "Ġtri": 1141,
      "very": 1142,
      "ality": 1143,
      "ather": 1144,
      "erest": 1145,
      "Ġimpro": 1146,
      "ature": 1147,
      "Ġ$\\": 1148,
      "read": 1149,
      "erg": 1150,
      "old": 1151,
      "Ġed": 1152,
      "Ġcalcul": 1153,
      "ward": 1154,
      "Ġmost": 1155,
      "Ġinst": 1156,
      "Ġproblem": 1157,
      "ng": 1158,
      "any": 1159,
      "Ġens": 1160,
      "port": 1161,
      ".\",": 1162,
      "Ġimpact": 1163,
      "Ġsur": 1164,
      "Ġobject": 1165,
      "ick": 1166,
      "Ġans": 1167,
      "ggest": 1168,
      "ural": 1169,
      "ateg": 1170,
      "imes": 1171,
      "wor": 1172,
      "ights": 1173,
      "Ġlet": 1174,
      "Ġpass": 1175,
      "Ġincluding": 1176,
      "ameters": 1177,
      "ines": 1178,
      "Ġsuggest": 1179,
      "Ġtest": 1180,
      "lease": 1181,
      "Ġline": 1182,
      "Ġsupport": 1183,
      "here": 1184,
      "This": 1185,
      "Ġ9": 1186,
      "}$": 1187,
      "line": 1188,
      "Ġexperience": 1189,
      "alth": 1190,
      "Ġel": 1191,
      "iel": 1192,
      "Ġchall": 1193,
      "ically": 1194,
      "com": 1195,
      "Ġmaking": 1196,
      "hed": 1197,
      "python": 1198,
      "Ġmany": 1199,
      "value": 1200,
      "ute": 1201,
      "Ġinterest": 1202,
      "Ġstring": 1203,
      "ubl": 1204,
      "Ġsk": 1205,
      "Ġsentence": 1206,
      "Ġlear": 1207,
      "ĠK": 1208,
      "Ġpur": 1209,
      "Ġ.": 1210,
      "__": 1211,
      "Ġadv": 1212,
      "Ġcustom": 1213,
      "ner": 1214,
      "Ġessential": 1215,
      "',": 1216,
      "))": 1217,
      "ault": 1218,
      "ars": 1219,
      "Ġpossible": 1220,
      "fter": 1221,
      "ĠBy": 1222,
      "Ġimport": 1223,
      "arr": 1224,
      "Ġarg": 1225,
      "Ġwere": 1226,
      "ysis": 1227,
      "ox": 1228,
      "Ġlong": 1229,
      "Ġpartic": 1230,
      "red": 1231,
      "Ġstruct": 1232,
      "Ġgrow": 1233,
      "Ġbeing": 1234,
      "Ġday": 1235,
      "iron": 1236,
      "If": 1237,
      "Ġsignificant": 1238,
      "ized": 1239,
      "iness": 1240,
      "uments": 1241,
      "Ġer": 1242,
      "Ġanswer": 1243,
      "call": 1244,
      "Ġlife": 1245,
      "Ġenv": 1246,
      "Ġser": 1247,
      "000": 1248,
      "Here": 1249,
      "iss": 1250,
      "Ġcount": 1251,
      "Ġpa": 1252,
      "Ġtop": 1253,
      "Ġconf": 1254,
      "plement": 1255,
      "Ġsmall": 1256,
      "Ġgreat": 1257,
      "ĠAs": 1258,
      "10": 1259,
      "oid": 1260,
      "Ġproject": 1261,
      "Ġstate": 1262,
      "ĠHowever": 1263,
      "Ġshow": 1264,
      "tal": 1265,
      "ieve": 1266,
      "_{": 1267,
      "Ġprogram": 1268,
      "ma": 1269,
      "Ġpower": 1270,
      "Ġmark": 1271,
      "Ġhum": 1272,
      "Ġoften": 1273,
      "gan": 1274,
      "Ġrese": 1275,
      "ix": 1276,
      "ational": 1277,
      "kes": 1278,
      "ining": 1279,
      "Ġemot": 1280,
      "Ġdire": 1281,
      "ision": 1282,
      "ade": 1283,
      "ploy": 1284,
      "Ġaccess": 1285,
      "Ġav": 1286,
      "ered": 1287,
      "Ġbus": 1288,
      "Ġcr": 1289,
      "Ġchang": 1290,
      "oice": 1291,
      "Ġunderstanding": 1292,
      "yn": 1293,
      "angu": 1294,
      "ĠHere": 1295,
      "Ġanalysis": 1296,
      "Ġtry": 1297,
      "uss": 1298,
      "Ġbeh": 1299,
      "ression": 1300,
      "Ġinvol": 1301,
      "Ġperform": 1302,
      "Ġfam": 1303,
      "Ġenviron": 1304,
      "Ġext": 1305,
      "Ġpoints": 1306,
      "Ġstep": 1307,
      "riend": 1308,
      "Ġmodel": 1309,
      "Ġthink": 1310,
      "Ġpri": 1311,
      "Ġlog": 1312,
      "Ġexplore": 1313,
      "pro": 1314,
      "ber": 1315,
      "Ġmulti": 1316,
      "xt": 1317,
      "20": 1318,
      "ets": 1319,
      "Ġstat": 1320,
      "ĠY": 1321,
      "Ġcare": 1322,
      "Ġtotal": 1323,
      "ublic": 1324,
      "ator": 1325,
      "alance": 1326,
      "ec": 1327,
      "ology": 1328,
      "Ġtype": 1329,
      "Ġmust": 1330,
      "Ġcase": 1331,
      "Ġwithout": 1332,
      "</": 1333,
      "Ġprof": 1334,
      "Ġâ": 1335,
      "Ġopt": 1336,
      "perties": 1337,
      "Ġaut": 1338,
      "ization": 1339,
      "Ġunique": 1340,
      "ories": 1341,
      "ĠPython": 1342,
      "Ġsame": 1343,
      "Ġchec": 1344,
      "Ġsocial": 1345,
      "Ġmon": 1346,
      "cond": 1347,
      "Ġdep": 1348,
      "Ġlangu": 1349,
      "Ġthough": 1350,
      "omet": 1351,
      "ier": 1352,
      "ĠĠĠĠĠĠĠ": 1353,
      "hemat": 1354,
      "Ġz": 1355,
      "Ġcost": 1356,
      "ins": 1357,
      "ency": 1358,
      "Ġredu": 1359,
      ":**": 1360,
      "Ġcurrent": 1361,
      "ables": 1362,
      "und": 1363,
      "Ġimprove": 1364,
      "urther": 1365,
      "As": 1366,
      "Ġcalls": 1367,
      "Ġplay": 1368,
      "ited": 1369,
      "Ġi": 1370,
      "over": 1371,
      "ead": 1372,
      "\")": 1373,
      "Ġmain": 1374,
      "ont": 1375,
      "Ġcontin": 1376,
      "Ġformat": 1377,
      "Ġuser": 1378,
      "icient": 1379,
      "Ġdesign": 1380,
      "ring": 1381,
      "be": 1382,
      "iction": 1383,
      "Ġop": 1384,
      "$,": 1385,
      "Ġequation": 1386,
      "ems": 1387,
      "Ġhist": 1388,
      "ined": 1389,
      "vers": 1390,
      "Ġserv": 1391,
      "Ġiss": 1392,
      "Ġsec": 1393,
      "Ġconcept": 1394,
      "print": 1395,
      "sc": 1396,
      "Ġach": 1397,
      "^{": 1398,
      "St": 1399,
      "Ġrange": 1400,
      "Ġshare": 1401,
      "\"}}": 1402,
      "ath": 1403,
      "irc": 1404,
      "Ġelements": 1405,
      "Ġhealth": 1406,
      "Ġideas": 1407,
      "ples": 1408,
      "Ġenvironment": 1409,
      "Ġcharacters": 1410,
      "Ġdown": 1411,
      "Ġspace": 1412,
      "ling": 1413,
      "ividual": 1414,
      "Ġaccount": 1415,
      "Ġeffective": 1416,
      "...": 1417,
      "aging": 1418,
      "right": 1419,
      "Ġdeterm": 1420,
      "ĠâĢ": 1421,
      "Ġest": 1422,
      "ĠCh": 1423,
      "Ġmathemat": 1424,
      "Ġchalleng": 1425,
      "Ġensure": 1426,
      "ength": 1427,
      "Ġclear": 1428,
      "ock": 1429,
      "count": 1430,
      "ĠAI": 1431,
      "Ġinclude": 1432,
      "Ġsal": 1433,
      "Ġindividual": 1434,
      "clus": 1435,
      "day": 1436,
      "verage": 1437,
      "Ġcorrect": 1438,
      "Ġwithin": 1439,
      "ages": 1440,
      "ci": 1441,
      "Ġstand": 1442,
      "Ġend": 1443,
      "ists": 1444,
      "ots": 1445,
      "aining": 1446,
      "Ġbusiness": 1447,
      "Ġcomb": 1448,
      "Ġteam": 1449,
      "Ġaround": 1450,
      "Ġmag": 1451,
      "ros": 1452,
      "Ġfound": 1453,
      "Ġbuild": 1454,
      "eting": 1455,
      "Ġoper": 1456,
      "ved": 1457,
      "rt": 1458,
      "Ġwriting": 1459,
      "Ġnon": 1460,
      "angle": 1461,
      "Ġcompany": 1462,
      "ause": 1463,
      "Ġconne": 1464,
      "Ġimplement": 1465,
      "Ġdistrib": 1466,
      "pty": 1467,
      "Ġrepresent": 1468,
      "Ġorig": 1469,
      "up": 1470,
      "Ġidentify": 1471,
      "An": 1472,
      "Ġsecond": 1473,
      "round": 1474,
      "Ġnum": 1475,
      "Ġ==": 1476,
      "Ġafter": 1477,
      "Ġlanguage": 1478,
      "Ġpop": 1479,
      "rite": 1480,
      "ake": 1481,
      "Ġben": 1482,
      "ee": 1483,
      "word": 1484,
      "Ġstre": 1485,
      "Ġdra": 1486,
      "Ġthree": 1487,
      "omm": 1488,
      "Ġbre": 1489,
      "ata": 1490,
      "function": 1491,
      "Ġexperi": 1492,
      "Ġresearch": 1493,
      "$.": 1494,
      "Ġevery": 1495,
      "por": 1496,
      "Ġdiscuss": 1497,
      "Ġstudents": 1498,
      "Ġtyp": 1499,
      "Ġyears": 1500,
      "Ġ\\]": 1501,
      "Ġfin": 1502,
      "Ġoffer": 1503,
      "bs": 1504,
      "arm": 1505,
      "Ġarea": 1506,
      "Ġdev": 1507,
      "onsider": 1508,
      "ants": 1509,
      "Ġcult": 1510,
      "ĊĠĠĠĠĠĠĠĠĠĠĠĠĠĠĠ": 1511,
      "ours": 1512,
      "Ġcity": 1513,
      "Ġpositive": 1514,
      "Ġconcise": 1515,
      "ilities": 1516,
      "ithm": 1517,
      "Ġright": 1518,
      "itions": 1519,
      "Ġcent": 1520,
      ">[": 1521,
      "Ġdel": 1522,
      "Ġlocal": 1523,
      "ĠThey": 1524,
      "]</": 1525,
      "Ġdescri": 1526,
      "Ġemploy": 1527,
      "Ġlim": 1528,
      "Ġterms": 1529,
      "Ġtre": 1530,
      "ental": 1531,
      "Ġhuman": 1532,
      "ior": 1533,
      "ails": 1534,
      "aw": 1535,
      "Ġge": 1536,
      "Ġstructure": 1537,
      "Ġpresent": 1538,
      "Ġchange": 1539,
      "Ġrequired": 1540,
      "âĢĻ": 1541,
      "Ġareas": 1542,
      "Ġsure": 1543,
      "ern": 1544,
      "ĊĠ": 1545,
      "ĠThese": 1546,
      "requ": 1547,
      "ren": 1548,
      "Ġanaly": 1549,
      "Ġtas": 1550,
      "Ġinit": 1551,
      "Ġcommunity": 1552,
      "Ġdiv": 1553,
      "ism": 1554,
      "ills": 1555,
      "ool": 1556,
      "ety": 1557,
      "Ġve": 1558,
      "string": 1559,
      "ources": 1560,
      "numb": 1561,
      "Ġmet": 1562,
      "Ġdi": 1563,
      "ccess": 1564,
      "nect": 1565,
      "Ġinf": 1566,
      "ains": 1567,
      "Ġlevel": 1568,
      "ax": 1569,
      "Ġpersonal": 1570,
      "Ġbecause": 1571,
      "Ġhim": 1572,
      "oring": 1573,
      "'d": 1574,
      "ination": 1575,
      "ote": 1576,
      "ven": 1577,
      "parameters": 1578,
      "Ġamount": 1579,
      "Ġprom": 1580,
      "ield": 1581,
      "Ġdem": 1582,
      "abor": 1583,
      "Ġstrateg": 1584,
      "Ġmaint": 1585,
      "Ġfriend": 1586,
      "ST": 1587,
      "Ġbefore": 1588,
      "Ġname": 1589,
      "Ġdri": 1590,
      "Ġenerg": 1591,
      "qrt": 1592,
      "ooking": 1593,
      "Ġexam": 1594,
      "ĠEm": 1595,
      "ention": 1596,
      "Ġmax": 1597,
      "anced": 1598,
      "Ġgood": 1599,
      "Ġgra": 1600,
      "list": 1601,
      "Ġtoget": 1602,
      "Ġtogether": 1603,
      "dict": 1604,
      "Ġmade": 1605,
      "Ġrelationships": 1606,
      "Ġopen": 1607,
      "Ġrole": 1608,
      "ĠTo": 1609,
      "Ġstill": 1610,
      "Ġjob": 1611,
      "Ġstudy": 1612,
      "ek": 1613,
      "ru": 1614,
      "verse": 1615,
      "It": 1616,
      "ew": 1617,
      "Ġbased": 1618,
      "Ġbenef": 1619,
      "Ġprot": 1620,
      "arguments": 1621,
      "Ġnarr": 1622,
      "Ġsqu": 1623,
      "Ġear": 1624,
      "Ġnext": 1625,
      "Ġ12": 1626,
      "Ġpublic": 1627,
      "Ġthose": 1628,
      "ified": 1629,
      "plications": 1630,
      "Ġinfl": 1631,
      "lex": 1632,
      "Ġsl": 1633,
      "pportun": 1634,
      "Ġfew": 1635,
      "Ġidea": 1636,
      "ivity": 1637,
      "Ġorgan": 1638,
      "arget": 1639,
      "Ġfil": 1640,
      "back": 1641,
      "io": 1642,
      "ross": 1643,
      "Ġchanges": 1644,
      "Ġcontent": 1645,
      "ope": 1646,
      "text": 1647,
      "Ġfurther": 1648,
      "Ġparticular": 1649,
      "ason": 1650,
      "Ġoriginal": 1651,
      "iting": 1652,
      "Ġaddress": 1653,
      "Ġdon": 1654,
      "ull": 1655,
      "Ġinvest": 1656,
      "Ġopportun": 1657,
      "Ġdirect": 1658,
      "Ġcreating": 1659,
      "ĠHe": 1660,
      "Ġenergy": 1661,
      "rodu": 1662,
      "Ġphys": 1663,
      "Ġachieve": 1664,
      "Ġpres": 1665,
      "ps": 1666,
      "izing": 1667,
      "By": 1668,
      "Ġless": 1669,
      "Ġgrowth": 1670,
      "Ġconst": 1671,
      "Ġaw": 1672,
      "ret": 1673,
      "ced": 1674,
      "work": 1675,
      "default": 1676,
      "urs": 1677,
      "pos": 1678,
      "atures": 1679,
      "Ġprev": 1680,
      "Ġcommon": 1681,
      "Ġsuccess": 1682,
      "ides": 1683,
      "lying": 1684,
      "Ġaddition": 1685,
      "Ġvers": 1686,
      "aps": 1687,
      "Ġsaid": 1688,
      "Ġwords": 1689,
      "arge": 1690,
      "Ġkeep": 1691,
      "idence": 1692,
      "Ġassist": 1693,
      "Ġprobability": 1694,
      "12": 1695,
      "Ġmess": 1696,
      "aces": 1697,
      "atural": 1698,
      "Ġsumm": 1699,
      "ibility": 1700,
      "ĠEx": 1701,
      "Ġvariables": 1702,
      "Ġcar": 1703,
      "Ġcoll": 1704,
      "Ġimm": 1705,
      "pose": 1706,
      "Ġvarious": 1707,
      "Ġwater": 1708,
      "Ġbel": 1709,
      "Ġintegr": 1710,
      "Ġmultiple": 1711,
      "Ġseries": 1712,
      "imately": 1713,
      "ulation": 1714,
      "ank": 1715,
      "ending": 1716,
      "Ġbehav": 1717,
      "ways": 1718,
      "ave": 1719,
      "Ġduring": 1720,
      "Ġfactors": 1721,
      "ugg": 1722,
      "Ġnecess": 1723,
      "Ġdevelopment": 1724,
      "Ġempty": 1725,
      "Ġpract": 1726,
      "Ġlast": 1727,
      "Ġbest": 1728,
      "Ġelse": 1729,
      "Ġelement": 1730,
      "Ġworking": 1731,
      "Ġ\\)": 1732,
      "num": 1733,
      "quence": 1734,
      "Ġscore": 1735,
      "asing": 1736,
      "ape": 1737,
      "Ġresponse": 1738,
      "the": 1739,
      "Ġevent": 1740,
      "Ġinflu": 1741,
      "Ġexpert": 1742,
      "Ġaverage": 1743,
      "ertain": 1744,
      "Ġargument": 1745,
      "Ġbalance": 1746,
      "sqrt": 1747,
      "Ġgl": 1748,
      "Ġresults": 1749,
      "Ġsym": 1750,
      "Ġmanage": 1751,
      "Ġbeg": 1752,
      "Ġ\\[": 1753,
      "Ġlength": 1754,
      "Ġbetter": 1755,
      "Ġsit": 1756,
      "istic": 1757,
      "Ġmind": 1758,
      "ĠTh": 1759,
      "Ġpast": 1760,
      "Ġincor": 1761,
      "Ġris": 1762,
      "Ġstandard": 1763,
      "ash": 1764,
      "Ġchallenges": 1765,
      "ital": 1766,
      "Ġfamily": 1767,
      "refore": 1768,
      "Ġorder": 1769,
      "Ġskills": 1770,
      "Ġfund": 1771,
      "app": 1772,
      "Ġexpect": 1773,
      "----": 1774,
      "Ġsentences": 1775,
      "Ġindic": 1776,
      "##": 1777,
      "ĠAd": 1778,
      "Ġaud": 1779,
      "Ġocc": 1780,
      "Ġevents": 1781,
      "Ġtrue": 1782,
      "Ġaff": 1783,
      "lish": 1784,
      "Ġways": 1785,
      "Ġtoo": 1786,
      "rror": 1787,
      "Ġfile": 1788,
      "idd": 1789,
      "Ġsystems": 1790,
      "Ġplace": 1791,
      "Ġmeas": 1792,
      "rol": 1793,
      "imum": 1794,
      "Ġarray": 1795,
      "We": 1796,
      "Ġoption": 1797,
      "Ġmot": 1798,
      "Ġnarrative": 1799,
      "Ġdistribution": 1800,
      "Ġcontext": 1801,
      "ĠAl": 1802,
      "Ġvariable": 1803,
      "Ġtools": 1804,
      "utions": 1805,
      "Ġquestions": 1806,
      "vert": 1807,
      "ances": 1808,
      "Ġ19": 1809,
      "For": 1810,
      "Ġprior": 1811,
      "Ġleft": 1812,
      "Ġmeans": 1813,
      "ually": 1814,
      ")^": 1815,
      "Ġrest": 1816,
      "Ġneeds": 1817,
      "Ġdays": 1818,
      "tle": 1819,
      "Ġexperiences": 1820,
      "Ġtem": 1821,
      "Ġcheck": 1822,
      "Ġoutput": 1823,
      "de": 1824,
      "Ġgeomet": 1825,
      "Ġsize": 1826,
      "Ġinitial": 1827,
      "Ġmethods": 1828,
      "atch": 1829,
      "Ġtravel": 1830,
      "50": 1831,
      "els": 1832,
      "Ġnow": 1833,
      "Ġphr": 1834,
      "ternative": 1835,
      "Ġbra": 1836,
      "Ġexist": 1837,
      "Ġlarge": 1838,
      "ucial": 1839,
      "ared": 1840,
      "air": 1841,
      "ze": 1842,
      "left": 1843,
      "elling": 1844,
      "Ex": 1845,
      "Ġeas": 1846,
      "Ġcrucial": 1847,
      "ised": 1848,
      "Another": 1849,
      "Ġappe": 1850,
      "Ġcrit": 1851,
      "Ġscen": 1852,
      "Ġagain": 1853,
      "Ġtarget": 1854,
      "Ġhours": 1855,
      "Ġengaging": 1856,
      "less": 1857,
      "ĠâĢĵ": 1858,
      "Ġrun": 1859,
      "ibr": 1860,
      "\"},": 1861,
      "ames": 1862,
      "{\\": 1863,
      "ering": 1864,
      "inary": 1865,
      "Ġ>": 1866,
      "eff": 1867,
      "Ġlight": 1868,
      "Ġnatural": 1869,
      "Ġlearning": 1870,
      ".,": 1871,
      "Ġerror": 1872,
      "Ġlook": 1873,
      "Ġcirc": 1874,
      "ometh": 1875,
      "uch": 1876,
      "Ġsn": 1877,
      "for": 1878,
      "Error": 1879,
      "hile": 1880,
      "Ġcalculate": 1881,
      "Ġmeaning": 1882,
      "Ġprovides": 1883,
      "Ġdig": 1884,
      "Ġsever": 1885,
      "Ġreturns": 1886,
      "Th": 1887,
      "Ġinsights": 1888,
      "Ġimportant": 1889,
      "apt": 1890,
      "Ġ//": 1891,
      "ĠShe": 1892,
      "pec": 1893,
      "alse": 1894,
      "Ġdeep": 1895,
      "Ġothers": 1896,
      "Ġdiction": 1897,
      "Ġeduc": 1898,
      "argument": 1899,
      "Ġsolution": 1900,
      "::": 1901,
      "cing": 1902,
      "by": 1903,
      "Ġneeded": 1904,
      "Ġbreak": 1905,
      "Ġhapp": 1906,
      "oh": 1907,
      "omething": 1908,
      "ird": 1909,
      "Ġanother": 1910,
      "set": 1911,
      "Ġassum": 1912,
      "Ġlo": 1913,
      "tools": 1914,
      "ond": 1915,
      "Ġfeet": 1916,
      "ilar": 1917,
      "Ġconnect": 1918,
      "Ġstatist": 1919,
      "ials": 1920,
      "Ġchild": 1921,
      "ditionally": 1922,
      "Ġstore": 1923,
      "of": 1924,
      "Ġvery": 1925,
      "oss": 1926,
      "Ġstrong": 1927,
      "ouse": 1928,
      "Ġconnection": 1929,
      "Ġinteger": 1930,
      "Ġ18": 1931,
      "Ġmyst": 1932,
      "Ġhome": 1933,
      "Ġworks": 1934,
      "Ġshort": 1935,
      "Ġland": 1936,
      "Ġneg": 1937,
      "Ġflow": 1938,
      "oot": 1939,
      "Ġmedia": 1940,
      "Ġemotional": 1941,
      "cd": 1942,
      "Ġperformance": 1943,
      "time": 1944,
      "Ġproperties": 1945,
      "terns": 1946,
      "Ġexpress": 1947,
      "Ġpurpose": 1948,
      "osing": 1949,
      "Ġfollows": 1950,
      "Ġsing": 1951,
      "Ġcollabor": 1952,
      "Ġbehavior": 1953,
      "Ġenc": 1954,
      "}\\": 1955,
      "Ġvalid": 1956,
      "nces": 1957,
      "iving": 1958,
      "ember": 1959,
      "ĠCon": 1960,
      "Ġsay": 1961,
      "ale": 1962,
      "Ġdetails": 1963,
      "Ġpatterns": 1964,
      "Ġfood": 1965,
      "Ġbi": 1966,
      "Ġmonth": 1967,
      "When": 1968,
      "Ġseveral": 1969,
      "aring": 1970,
      "Ġsomething": 1971,
      "lt": 1972,
      "Let": 1973,
      "Ġreader": 1974,
      "ĠMU": 1975,
      "Ġalways": 1976,
      "ble": 1977,
      "ients": 1978,
      "':": 1979,
      "Ġaspect": 1980,
      "ledge": 1981,
      "ĠMUST": 1982,
      "Ġobs": 1983,
      "Ġrather": 1984,
      "struct": 1985,
      "Ġbecome": 1986,
      "Ġtransform": 1987,
      "Ġtheory": 1988,
      "gor": 1989,
      "avig": 1990,
      "ding": 1991,
      "Ġactions": 1992,
      "play": 1993,
      "agon": 1994,
      "Ġfore": 1995,
      "ards": 1996,
      "more": 1997,
      "ĠUse": 1998,
      "Ġdetermine": 1999,
      "Ġlearn": 2000,
      "rack": 2001,
      "Ġsequence": 2002,
      "ires": 2003,
      "Ġsound": 2004,
      "],": 2005,
      "Ġgeneral": 2006,
      "gorithm": 2007,
      "Ġconvers": 2008,
      "iation": 2009,
      "'.": 2010,
      "Ġprofess": 2011,
      "Ġtakes": 2012,
      "Now": 2013,
      "Ġreach": 2014,
      "Ġdifference": 2015,
      "aries": 2016,
      "Ġmus": 2017,
      "aut": 2018,
      "Ġes": 2019,
      "rix": 2020,
      "vey": 2021,
      "agraph": 2022,
      "Ġdecision": 2023,
      "Ġformul": 2024,
      "Ġleast": 2025,
      "uation": 2026,
      "Ġincorpor": 2027,
      "Ġtimes": 2028,
      "acks": 2029,
      ">[{\"": 2030,
      "Pro": 2031,
      "box": 2032,
      "Ġoverall": 2033,
      "Ġside": 2034,
      "Ġequal": 2035,
      "Ġwhether": 2036,
      "Ġlove": 2037,
      "ndom": 2038,
      "Ġavoid": 2039,
      "Ġold": 2040,
      "ann": 2041,
      "Ġnavig": 2042,
      "Ġgoals": 2043,
      "Ġstatement": 2044,
      "Ad": 2045,
      "ries": 2046,
      "Ġversion": 2047,
      "Ġ100": 2048,
      "Ġgive": 2049,
      "One": 2050,
      "Ġupd": 2051,
      "Ġhere": 2052,
      "ception": 2053,
      "ource": 2054,
      "Ġsimple": 2055,
      "Ġintegers": 2056,
      "Ġfeed": 2057,
      "amp": 2058,
      "Ġsteps": 2059,
      "Ġnature": 2060,
      "Ġweek": 2061,
      "Ġhistory": 2062,
      "Ġcommunic": 2063,
      "arity": 2064,
      "Ġissues": 2065,
      "Ġresources": 2066,
      "ted": 2067,
      "Ġhead": 2068,
      "`,": 2069,
      "Ġmove": 2070,
      "Ġrespons": 2071,
      "imal": 2072,
      "Ġsearch": 2073,
      "object": 2074,
      "Ġnecessary": 2075,
      "Ġcontrol": 2076,
      "\\[": 2077,
      "Ġparagraph": 2078,
      "clusion": 2079,
      "Ġstrugg": 2080,
      "Ġsort": 2081,
      "However": 2082,
      "atic": 2083,
      "eue": 2084,
      "Ġmuch": 2085,
      "Ġrequire": 2086,
      "Ġhig": 2087,
      "Ġknown": 2088,
      "Ġadj": 2089,
      "Ġ30": 2090,
      "iques": 2091,
      "Ġ&": 2092,
      "Ġsince": 2093,
      "Ġactiv": 2094,
      "Ġalgorithm": 2095,
      "Ġfut": 2096,
      "light": 2097,
      "Ġestab": 2098,
      "Ġsens": 2099,
      "ah": 2100,
      "Ġjour": 2101,
      "Ġcolle": 2102,
      "Ġexc": 2103,
      "sing": 2104,
      "nov": 2105,
      "Ġmessage": 2106,
      "Ġvisual": 2107,
      "Ġbenefits": 2108,
      "mer": 2109,
      "math": 2110,
      "sum": 2111,
      "pective": 2112,
      "ming": 2113,
      "Ġaudience": 2114,
      "isf": 2115,
      "ĠAn": 2116,
      "Ġmater": 2117,
      "Ġprime": 2118,
      "action": 2119,
      "Ġfield": 2120,
      "raft": 2121,
      "oose": 2122,
      "Ġnet": 2123,
      "ĠPro": 2124,
      "ĠX": 2125,
      "ogn": 2126,
      "inking": 2127,
      "Ġsales": 2128,
      "Ġsat": 2129,
      "Ġeval": 2130,
      "Ġmom": 2131,
      "Ġfac": 2132,
      "aking": 2133,
      "ava": 2134,
      "Ġcustomer": 2135,
      "ference": 2136,
      "utes": 2137,
      "ises": 2138,
      "Last": 2139,
      "Ġintrodu": 2140,
      "Ġonline": 2141,
      "Ġreve": 2142,
      "Ġask": 2143,
      "me": 2144,
      "osp": 2145,
      "Ġsquare": 2146,
      "Ġreaders": 2147,
      "Ġdictionary": 2148,
      "Ġ15": 2149,
      "ron": 2150,
      "Ġbegin": 2151,
      "`.": 2152,
      "oura": 2153,
      "ystem": 2154,
      "Ġsust": 2155,
      "Ġcontrib": 2156,
      "Ġunc": 2157,
      "\"]": 2158,
      "Ġreview": 2159,
      "equ": 2160,
      "let": 2161,
      "Ġacross": 2162,
      "hor": 2163,
      "ditions": 2164,
      "Al": 2165,
      "Ġmov": 2166,
      "alcul": 2167,
      "Ġindust": 2168,
      "Ġallowing": 2169,
      "ooks": 2170,
      "ameter": 2171,
      "Ġcertain": 2172,
      "Ġfree": 2173,
      "Ġsimpl": 2174,
      "Ġchoice": 2175,
      "atform": 2176,
      "ees": 2177,
      "ody": 2178,
      "Ġword": 2179,
      "Ġseem": 2180,
      "yle": 2181,
      "ctor": 2182,
      "Ġsw": 2183,
      "li": 2184,
      "ral": 2185,
      "ension": 2186,
      "Ġdiff": 2187,
      "Ġcour": 2188,
      "ney": 2189,
      "Ġtaking": 2190,
      "rame": 2191,
      "ĠTr": 2192,
      "Ġconse": 2193,
      "ush": 2194,
      "chool": 2195,
      "lev": 2196,
      "ĉĉ": 2197,
      "Ġturn": 2198,
      "Ġtechniques": 2199,
      "ynam": 2200,
      "Ġsustain": 2201,
      "ule": 2202,
      "ĠQ": 2203,
      "Ġey": 2204,
      "rid": 2205,
      "lation": 2206,
      "reate": 2207,
      "cent": 2208,
      "Ġgroups": 2209,
      "Ġcustomers": 2210,
      "ĠPlease": 2211,
      "Em": 2212,
      "ches": 2213,
      "Lastly": 2214,
      "Ġavail": 2215,
      "Ġage": 2216,
      "Ġformula": 2217,
      "Ġlarg": 2218,
      "Ġdatas": 2219,
      "Ġable": 2220,
      "ken": 2221,
      "Ġmiss": 2222,
      "orem": 2223,
      "Ġdue": 2224,
      "Ġla": 2225,
      "Ġallows": 2226,
      "Ġpair": 2227,
      "ĠConsider": 2228,
      "Ġspecial": 2229,
      "land": 2230,
      "Ġfeedback": 2231,
      "conom": 2232,
      "pping": 2233,
      "Ġinteract": 2234,
      "ditional": 2235,
      "Ġview": 2236,
      "Ġoptions": 2237,
      "Ġdid": 2238,
      "Ġstay": 2239,
      "Ġcaus": 2240,
      "cript": 2241,
      "ĠâĪ": 2242,
      "reen": 2243,
      "Ġindividuals": 2244,
      "Ġcontinu": 2245,
      "Ġuses": 2246,
      "Ġcomplexity": 2247,
      "Ġvisit": 2248,
      "Ġpath": 2249,
      "Ġfuture": 2250,
      "number": 2251,
      "Ġefficient": 2252,
      "Ġusers": 2253,
      "Ġtechnology": 2254,
      "aches": 2255,
      "Ġbook": 2256,
      "Ġlooking": 2257,
      "come": 2258,
      "Ġsaf": 2259,
      "[]": 2260,
      "bra": 2261,
      "Ġbro": 2262,
      "Ġplatform": 2263,
      "Ġtone": 2264,
      "endent": 2265,
      "Ġsample": 2266,
      "Ġopportunities": 2267,
      "Ġincrease": 2268,
      "Ġproviding": 2269,
      "Ġlikely": 2270,
      "Ġthird": 2271,
      "data": 2272,
      "ĊĠĠĠĠĠĠĠĠĠĠĠĠĠĠĠĠ": 2273,
      "isions": 2274,
      "Ġrate": 2275,
      "import": 2276,
      "Ġknowledge": 2277,
      "Ġplease": 2278,
      "arent": 2279,
      "ĠLet": 2280,
      "unc": 2281,
      "Ġmotiv": 2282,
      "Ġair": 2283,
      "Ġeffectively": 2284,
      "know": 2285,
      "Ġsatisf": 2286,
      "('": 2287,
      "ĠYour": 2288,
      "cos": 2289,
      "ĠRe": 2290,
      "Ġengage": 2291,
      "Ġcomput": 2292,
      "Ġnorm": 2293,
      "Ġfactor": 2294,
      "nter": 2295,
      "class": 2296,
      "Ġiter": 2297,
      "Ġactivities": 2298,
      "Ġvoice": 2299,
      "ĠSh": 2300,
      "Ġsingle": 2301,
      "Ġfeatures": 2302,
      "ltimately": 2303,
      "Ġcome": 2304,
      "Ġang": 2305,
      "respon": 2306,
      "Ġthought": 2307,
      "Ġsolve": 2308,
      "oor": 2309,
      "Ġparameters": 2310,
      "Ġsetting": 2311,
      "boxed": 2312,
      "Write": 2313,
      "Ġparticularly": 2314,
      "ront": 2315,
      "Ġlinear": 2316,
      "Ġaffect": 2317,
      "iod": 2318,
      "[\"": 2319,
      "ially": 2320,
      "Ġsummary": 2321,
      "sh": 2322,
      "oat": 2323,
      "ĠWhen": 2324,
      "iled": 2325,
      "inally": 2326,
      "Ġbound": 2327,
      "Ġlow": 2328,
      "ĠUn": 2329,
      "Ġenh": 2330,
      "aling": 2331,
      "Ġarr": 2332,
      "Ġrandom": 2333,
      "not": 2334,
      "Ġaction": 2335,
      "ero": 2336,
      "Ġcontain": 2337,
      "Ġbas": 2338,
      "Ġexpression": 2339,
      "ograph": 2340,
      "ĠSince": 2341,
      "Ġtown": 2342,
      "Ġtask": 2343,
      "Ġinnov": 2344,
      "cdot": 2345,
      "Ġforward": 2346,
      "Ġphysical": 2347,
      "Ġassistant": 2348,
      "Ġadjust": 2349,
      "Ġfall": 2350,
      "Ġparameter": 2351,
      "pth": 2352,
      "alk": 2353,
      "quences": 2354,
      "Ġpie": 2355,
      "Ġpopulation": 2356,
      "Ġprovided": 2357,
      "face": 2358,
      "Ġguid": 2359,
      "omes": 2360,
      "Ġthoughts": 2361,
      "11": 2362,
      "Ġnegative": 2363,
      "array": 2364,
      "Ġtypes": 2365,
      "Ġreduce": 2366,
      "Ġevalu": 2367,
      "eper": 2368,
      "Ġlimit": 2369,
      "Ġadditional": 2370,
      "Ġmarket": 2371,
      "wards": 2372,
      "Ġmathematics": 2373,
      "ĠBut": 2374,
      "Ġcapt": 2375,
      "aim": 2376,
      "Ġmusic": 2377,
      "haps": 2378,
      "Best": 2379,
      "Can": 2380,
      "Ġdistance": 2381,
      "Ġ<<": 2382,
      "met": 2383,
      "15": 2384,
      "ilt": 2385,
      "Ġder": 2386,
      "Ġinstance": 2387,
      "Ġplot": 2388,
      "Ġmeet": 2389,
      "Ġprogress": 2390,
      "Ġmaintain": 2391,
      "Ġcontra": 2392,
      "Ġcoeff": 2393,
      "ends": 2394,
      "Ġcap": 2395,
      "Ġlit": 2396,
      "Ġthinking": 2397,
      "Ġ25": 2398,
      "Ġdynam": 2399,
      "inct": 2400,
      "Ġclose": 2401,
      "Ġemotions": 2402,
      "Ġobserv": 2403,
      "Ġnu": 2404,
      "ohn": 2405,
      "Ġevidence": 2406,
      "Ġissue": 2407,
      "Ġroom": 2408,
      "Ġconditions": 2409,
      "Ġsimilar": 2410,
      "Ġfinal": 2411,
      "Ġfundam": 2412,
      "writ": 2413,
      "Ġconsist": 2414,
      "Ġpost": 2415,
      "Ġconvey": 2416,
      "Ġitself": 2417,
      "Ġgame": 2418,
      "Ġperiod": 2419,
      "fully": 2420,
      "ips": 2421,
      "Ġcareer": 2422,
      "ological": 2423,
      "Ġinvolves": 2424,
      "Ġmathematical": 2425,
      "bol": 2426,
      "Ġstarting": 2427,
      "ently": 2428,
      "Ġproducts": 2429,
      "iles": 2430,
      "Ġdraw": 2431,
      "ug": 2432,
      "ĠAre": 2433,
      "ager": 2434,
      "Ġroot": 2435,
      "ream": 2436,
      "ording": 2437,
      "imize": 2438,
      "ators": 2439,
      "Ġtrying": 2440,
      "Ġtrend": 2441,
      "unch": 2442,
      "Ġsides": 2443,
      "iety": 2444,
      "rehe": 2445,
      "path": 2446,
      "min": 2447,
      "add": 2448,
      "Ġclarity": 2449,
      "Ġball": 2450,
      "iate": 2451,
      "Ġmeasure": 2452,
      "ivers": 2453,
      "Ġfocusing": 2454,
      "aint": 2455,
      "Ġtrip": 2456,
      "Ġyoung": 2457,
      "account": 2458,
      "ready": 2459,
      "Ġrecomm": 2460,
      "Ġeconom": 2461,
      "Ġreason": 2462,
      "ĠInst": 2463,
      "ished": 2464,
      "ptions": 2465,
      "bers": 2466,
      "Ġhandle": 2467,
      "orts": 2468,
      "Ġnight": 2469,
      "Ġmarketing": 2470,
      "Ġwon": 2471,
      "flict": 2472,
      "Ġcosts": 2473,
      "fect": 2474,
      "Ġden": 2475,
      "Ġwrite": 2476,
      "erc": 2477,
      "ges": 2478,
      "ended": 2479,
      "(-": 2480,
      "head": 2481,
      "\\)": 2482,
      "Ġrad": 2483,
      "log": 2484,
      "Ġbit": 2485,
      "ĠNone": 2486,
      "ĠCan": 2487,
      "Ġcomplete": 2488,
      "joy": 2489,
      "25": 2490,
      "Ġmagic": 2491,
      "Ġhope": 2492,
      "Ġstd": 2493,
      "Ġoccur": 2494,
      "lo": 2495,
      "ĊĊĠĠĠĠĠĠĠ": 2496,
      "Ġimplications": 2497,
      "Ġalready": 2498,
      "clude": 2499,
      "orical": 2500,
      "Ġsets": 2501,
      "Ġreflect": 2502,
      "key": 2503,
      "Ġinstead": 2504,
      "Ġdeeper": 2505,
      "Ġrece": 2506,
      "Ġstreng": 2507,
      "Ġbring": 2508,
      "pped": 2509,
      "gebra": 2510,
      "etic": 2511,
      "Ġfundamental": 2512,
      "new": 2513,
      "Ġexploring": 2514,
      "Ġimportance": 2515,
      "Ġschool": 2516,
      "ift": 2517,
      "ging": 2518,
      "Ġcorrespon": 2519,
      "Ġrich": 2520,
      "urity": 2521,
      "Ġconflict": 2522,
      "\"}},": 2523,
      "rors": 2524,
      "(\\": 2525,
      "icult": 2526,
      "Ġcourse": 2527,
      "Ġestablish": 2528,
      "Ġtriangle": 2529,
      "ĠÎ": 2530,
      "times": 2531,
      "co": 2532,
      "tt": 2533,
      "PI": 2534,
      "Ġhelps": 2535,
      "Ġconsidering": 2536,
      "irt": 2537,
      "Ġpay": 2538,
      "rehens": 2539,
      "Ġquality": 2540,
      "actions": 2541,
      "Ġhigher": 2542,
      "Ġencoura": 2543,
      "plication": 2544,
      "Ġsolutions": 2545,
      "ything": 2546,
      "ats": 2547,
      "()`": 2548,
      "Ġwebs": 2549,
      "ields": 2550,
      "Ġincluded": 2551,
      "Ġmanagement": 2552,
      "Ġtasks": 2553,
      "Ġ16": 2554,
      "alue": 2555,
      "Ġimplementation": 2556,
      "ĠIs": 2557,
      "Ġbase": 2558,
      "Ġnode": 2559,
      "point": 2560,
      "Consider": 2561,
      "Ġadapt": 2562,
      "Ġjourney": 2563,
      "Con": 2564,
      "Ġmakes": 2565,
      "Ġleading": 2566,
      "Ġseen": 2567,
      "Ġhaving": 2568,
      "Ġraise": 2569,
      "ane": 2570,
      "Ġcases": 2571,
      "Ġprofessional": 2572,
      "Im": 2573,
      "')": 2574,
      "Ġpriorit": 2575,
      "ĠDef": 2576,
      "ĠOut": 2577,
      "agonist": 2578,
      "Ġdepth": 2579,
      "Ġinfin": 2580,
      "ym": 2581,
      "Ġgr": 2582,
      "itud": 2583,
      "Ġgain": 2584,
      "Ġfinanc": 2585,
      "Ġstrategies": 2586,
      "uable": 2587,
      "16": 2588,
      "Ġmor": 2589,
      "Based": 2590,
      "Ġregular": 2591,
      "Ġavailable": 2592,
      "sp": 2593,
      "ĠDe": 2594,
      "Ġbuilding": 2595,
      "selves": 2596,
      "Ġreality": 2597,
      "ĠAnd": 2598,
      "Ġlower": 2599,
      "Ġcollect": 2600,
      "Ġprec": 2601,
      ")$": 2602,
      "Ġconstant": 2603,
      "properties": 2604,
      "Ġreally": 2605,
      "Ġpowerful": 2606,
      "cient": 2607,
      "30": 2608,
      "Ġdecisions": 2609,
      "Ġrevised": 2610,
      "Ġâī": 2611,
      "raw": 2612,
      "Ġdifficult": 2613,
      "ius": 2614,
      "Ġyourself": 2615,
      "phas": 2616,
      "side": 2617,
      "Ġsepar": 2618,
      "plies": 2619,
      "Ġmaterials": 2620,
      "vide": 2621,
      "acy": 2622,
      "Ġclim": 2623,
      "Ġgoal": 2624,
      "Ġrelated": 2625,
      "Ġcateg": 2626,
      "icle": 2627,
      "Ġthings": 2628,
      "Ġbeaut": 2629,
      "Ġcondition": 2630,
      "=\"": 2631,
      "Ġcomprehens": 2632,
      "ĠAr": 2633,
      "ĠCom": 2634,
      "Ġtransport": 2635,
      "Ġinvolve": 2636,
      "Ġ11": 2637,
      "Ġdataset": 2638,
      "place": 2639,
      "Ġsuggestions": 2640,
      "Ġdoing": 2641,
      "olution": 2642,
      "Ġessay": 2643,
      "ived": 2644,
      "Ġclos": 2645,
      "ĠWhile": 2646,
      "Ġwom": 2647,
      "fer": 2648,
      "Ġinterp": 2649,
      "duct": 2650,
      "Ġvol": 2651,
      "Ġsomeone": 2652,
      "ailed": 2653,
      "file": 2654,
      "Ġill": 2655,
      "Ġpredict": 2656,
      "ither": 2657,
      "Ġmaximum": 2658,
      "aching": 2659,
      "Ġservices": 2660,
      "zing": 2661,
      "valid": 2662,
      "Ġclaim": 2663,
      "Ġprevious": 2664,
      "asc": 2665,
      "Ġ50": 2666,
      "Ġtrack": 2667,
      "Ġobjects": 2668,
      "onstr": 2669,
      "izes": 2670,
      "\"\"": 2671,
      "Ġkind": 2672,
      "Ġfar": 2673,
      "Ġentire": 2674,
      "Ġrisk": 2675,
      "Ġstrict": 2676,
      "\"]}}": 2677,
      "Ġindep": 2678,
      "Ġnumer": 2679,
      "Ġsnail": 2680,
      "\":[\"": 2681,
      "arrow": 2682,
      "Ġfriends": 2683,
      "view": 2684,
      "Ġchoose": 2685,
      "Ġconcer": 2686,
      "Ġcritical": 2687,
      "entions": 2688,
      "ĠDo": 2689,
      "son": 2690,
      "func": 2691,
      "Ġrelev": 2692,
      "Ġloop": 2693,
      "required": 2694,
      "Ġwind": 2695,
      "Ġpolic": 2696,
      "Ġabove": 2697,
      "Ġscience": 2698,
      "Ġdivid": 2699,
      "input": 2700,
      "ĠZ": 2701,
      "Ġprotagonist": 2702,
      "Ġindustry": 2703,
      "Ġenjoy": 2704,
      "Ġgot": 2705,
      "Ġagainst": 2706,
      "Ġlay": 2707,
      "Ġfrequ": 2708,
      ".\"}}": 2709,
      "Ġcorrelation": 2710,
      "idden": 2711,
      "ival": 2712,
      "Ġface": 2713,
      "ĠPer": 2714,
      "Ġbehind": 2715,
      "rop": 2716,
      "uth": 2717,
      "Ġitems": 2718,
      "Ġdark": 2719,
      "Ġdemonstr": 2720,
      "Ġdistinct": 2721,
      "Ġfit": 2722,
      "Ġur": 2723,
      "omial": 2724,
      "aving": 2725,
      "Ġlibr": 2726,
      "Ġmemory": 2727,
      "Ġconclusion": 2728,
      "Ġelect": 2729,
      "pecially": 2730,
      "Ġbo": 2731,
      "Ġinterval": 2732,
      "resents": 2733,
      "Ġmar": 2734,
      "Ġindex": 2735,
      "Ġanalyze": 2736,
      "heck": 2737,
      "Ġstack": 2738,
      "Ġgover": 2739,
      "ifying": 2740,
      "Ġ__": 2741,
      "Ġsoft": 2742,
      "Ġculture": 2743,
      ".\"}},\"": 2744,
      "Ġalgebra": 2745,
      "Ġposition": 2746,
      "Ġrow": 2747,
      "Ġfinancial": 2748,
      "pi": 2749,
      "Ġremain": 2750,
      "uck": 2751,
      "//": 2752,
      "Ġpriv": 2753,
      "Ġgen": 2754,
      "Ġespecially": 2755,
      "Therefore": 2756,
      "Ġservice": 2757,
      "Ġinsp": 2758,
      "resh": 2759,
      "Ġver": 2760,
      "Ġemployees": 2761,
      "ising": 2762,
      ".\",\"": 2763,
      "Ġperfect": 2764,
      "Ġever": 2765,
      "Ġproblems": 2766,
      "Ġassoc": 2767,
      "ypot": 2768,
      "Ġheart": 2769,
      "Ġsubject": 2770,
      "();": 2771,
      "perty": 2772,
      "numbers": 2773,
      "Ġvide": 2774,
      "Ġrecogn": 2775,
      "Ġstatistical": 2776,
      "Ġrepresents": 2777,
      "Ġche": 2778,
      "ests": 2779,
      "Ġoptional": 2780,
      "Ġformal": 2781,
      "ser": 2782,
      "Ġtraining": 2783,
      "Ġnear": 2784,
      "Ġeducation": 2785,
      "ters": 2786,
      "Ġcompon": 2787,
      "Ġfour": 2788,
      "Ġcraft": 2789,
      "stru": 2790,
      "Ġgreater": 2791,
      "Ġerrors": 2792,
      "Ġconcepts": 2793,
      "Ġnavigate": 2794,
      "First": 2795,
      "hel": 2796,
      "99": 2797,
      "Ġscores": 2798,
      "Ġconsequences": 2799,
      "Ġconcerns": 2800,
      "Ġenhance": 2801,
      "Ġplanning": 2802,
      "Ġability": 2803,
      "$$": 2804,
      "Ġtell": 2805,
      "Ġlocation": 2806,
      "Ġbody": 2807,
      "Ġ200": 2808,
      "ification": 2809,
      "Ġabs": 2810,
      "Ġhol": 2811,
      ")(": 2812,
      "ele": 2813,
      "Ġsituation": 2814,
      "Ġcreative": 2815,
      "Ġauthor": 2816,
      "Ġcho": 2817,
      ".\")": 2818,
      "Ġapplications": 2819,
      "Ġalign": 2820,
      "ĠAlex": 2821,
      "ĠTherefore": 2822,
      "Ġbr": 2823,
      "So": 2824,
      "Your": 2825,
      "tr": 2826,
      "Ġmembers": 2827,
      "Ġsuggests": 2828,
      "Ġdeg": 2829,
      "Ġpress": 2830,
      "Ġidentity": 2831,
      "atives": 2832,
      "Ġmatrix": 2833,
      "enge": 2834,
      "Ġhouse": 2835,
      "Ġbox": 2836,
      "urate": 2837,
      "Ġenvironmental": 2838,
      "Ġgovern": 2839,
      "Ġreson": 2840,
      "ta": 2841,
      "fort": 2842,
      "18": 2843,
      "Ġcircle": 2844,
      "ouble": 2845,
      "arc": 2846,
      "Ġadding": 2847,
      "Ġprim": 2848,
      "Ġprice": 2849,
      "sin": 2850,
      "Ġdoc": 2851,
      "Ġcontinue": 2852,
      "Ġrecommend": 2853,
      "ĠNew": 2854,
      "Ġchildren": 2855,
      "Ġsun": 2856,
      "Ġconnections": 2857,
      "Ġparticip": 2858,
      "Ġtable": 2859,
      "Ġthemselves": 2860,
      "Ġalong": 2861,
      "based": 2862,
      "Ġdoesn": 2863,
      "Ġattention": 2864,
      "Ġnone": 2865,
      "Ġincreasing": 2866,
      "Ġcy": 2867,
      "Ġexamples": 2868,
      "mod": 2869,
      "izations": 2870,
      "}$.": 2871,
      "udget": 2872,
      "ĠOne": 2873,
      "ĠCl": 2874,
      "umber": 2875,
      "ĠNO": 2876,
      "Ġaspects": 2877,
      "Ġsche": 2878,
      "Ġgeometric": 2879,
      "ĠEmily": 2880,
      "Ġgoing": 2881,
      "Ġmemories": 2882,
      "Ġpolyn": 2883,
      "ugh": 2884,
      "otal": 2885,
      "Ġrat": 2886,
      "Ġbecomes": 2887,
      "ership": 2888,
      "Ġprep": 2889,
      "year": 2890,
      "\\]": 2891,
      "Ġinterested": 2892,
      "Ġancient": 2893,
      "Ġworth": 2894,
      "Ġstrictly": 2895,
      "Ġweight": 2896,
      "Ġfra": 2897,
      "mosp": 2898,
      "Ġphrase": 2899,
      "Ġsuit": 2900,
      "itude": 2901,
      "Ġexact": 2902,
      "Ġalternative": 2903,
      "Ġdescribe": 2904,
      "Ġstrategy": 2905,
      "40": 2906,
      "ici": 2907,
      "Ġmoment": 2908,
      "itle": 2909,
      "Ġstrength": 2910,
      "Ġamong": 2911,
      "Ġcalled": 2912,
      "Ġfoot": 2913,
      "Ġmeeting": 2914,
      "aste": 2915,
      "aly": 2916,
      "oph": 2917,
      "Ġengine": 2918,
      "Ġspaces": 2919,
      "ÏĢ": 2920,
      "Ġimmers": 2921,
      "Ġtemper": 2922,
      "date": 2923,
      "Ġreport": 2924,
      "ustr": 2925,
      "Ġminutes": 2926,
      "Ġstyle": 2927,
      "Ġexh": 2928,
      "ĠBe": 2929,
      "Ġeyes": 2930,
      "Ġbelieve": 2931,
      "Ġconversation": 2932,
      "Ġlarger": 2933,
      "ening": 2934,
      "Ġinfluence": 2935,
      "Ġgraph": 2936,
      "ares": 2937,
      "Ġvaluable": 2938,
      "Ġatmosp": 2939,
      "Ġsmo": 2940,
      "100": 2941,
      "Ch": 2942,
      "ty": 2943,
      "Ġaway": 2944,
      "ĠOutput": 2945,
      "Ġapprox": 2946,
      "Ġlacks": 2947,
      "mar": 2948,
      "Ġdest": 2949,
      "Ġadhere": 2950,
      "aur": 2951,
      "Ġrelevant": 2952,
      "tic": 2953,
      "Ġunt": 2954,
      "Ġconsum": 2955,
      "ibilities": 2956,
      "Ġemail": 2957,
      "Ġmental": 2958,
      "==": 2959,
      "Ġscient": 2960,
      "Additionally": 2961,
      "Ġcolor": 2962,
      "Ġwebsite": 2963,
      "Ġoperations": 2964,
      "Ġhidden": 2965,
      "aves": 2966,
      "Ġcommunication": 2967,
      "eed": 2968,
      "ged": 2969,
      "Ġobjective": 2970,
      "su": 2971,
      "ntic": 2972,
      "akes": 2973,
      "Ġselect": 2974,
      "agine": 2975,
      "ordin": 2976,
      "Ġintern": 2977,
      "Ġdesigned": 2978,
      "Ġrequires": 2979,
      "ferences": 2980,
      "Ġtheorem": 2981,
      "Since": 2982,
      "Ġroots": 2983,
      "].": 2984,
      "Ġmagical": 2985,
      "meric": 2986,
      "alculate": 2987,
      "Ġ17": 2988,
      "Ġdeviation": 2989,
      "Ġmodels": 2990,
      "Ġhighlight": 2991,
      "13": 2992,
      "ĠWith": 2993,
      "Ġonce": 2994,
      "Ġ...": 2995,
      "Ġsustainable": 2996,
      "Ġbrand": 2997,
      "Ġapproaches": 2998,
      "hentic": 2999,
      "ply": 3000,
      "Ġsurround": 3001,
      "Ġtension": 3002,
      "ĠEu": 3003,
      "ground": 3004,
      "Ġcultural": 3005,
      "my": 3006,
      "Ġleg": 3007,
      "oney": 3008,
      "Ġdetect": 3009,
      "cast": 3010,
      "ey": 3011,
      "bed": 3012,
      "Ġzero": 3013,
      "Ġtypically": 3014,
      "ĠIm": 3015,
      "ĊĠĠĠĠĠ": 3016,
      "Ġequations": 3017,
      "Ġmix": 3018,
      "Ġindependent": 3019,
      "Ġpropos": 3020,
      "hers": 3021,
      "Ġconver": 3022,
      "Ġlines": 3023,
      "Ġstories": 3024,
      "odes": 3025,
      "rie": 3026,
      "Ġdivis": 3027,
      "Ġexpertise": 3028,
      "Ġhypot": 3029,
      "ms": 3030,
      "inst": 3031,
      "Ġtraditional": 3032,
      "Ġcompet": 3033,
      "ware": 3034,
      "Ġrob": 3035,
      "Ġeffects": 3036,
      "illed": 3037,
      "Ġhard": 3038,
      "Ġframe": 3039,
      "imens": 3040,
      "Ġstudent": 3041,
      "Ġcannot": 3042,
      "Ġmis": 3043,
      "Ġlives": 3044,
      "ury": 3045,
      "These": 3046,
      "Ġaccurate": 3047,
      "Ġpromot": 3048,
      "Ġprin": 3049,
      "Ġgard": 3050,
      "user": 3051,
      "iment": 3052,
      "Ġtransition": 3053,
      "Ġtreat": 3054,
      "Ġexplain": 3055,
      "Ġfeeling": 3056,
      "avor": 3057,
      "orn": 3058,
      "Ġgenerate": 3059,
      "Com": 3060,
      "ĠSc": 3061,
      "Ġdirectly": 3062,
      "Ġrefuse": 3063,
      "ternatively": 3064,
      "Ġnuanced": 3065,
      "Ġmach": 3066,
      "dd": 3067,
      "istics": 3068,
      "Ġpresence": 3069,
      "emember": 3070,
      "ĠTrue": 3071,
      "aily": 3072,
      "Ġemphas": 3073,
      "Ġlevels": 3074,
      "Ġshape": 3075,
      "uly": 3076,
      "Ġeither": 3077,
      "Ġpurch": 3078,
      "irtual": 3079,
      "max": 3080,
      "Ġquant": 3081,
      "hood": 3082,
      "Ġrelative": 3083,
      "Ġdr": 3084,
      "Ġrespect": 3085,
      "ules": 3086,
      "Ġproperty": 3087,
      "amb": 3088,
      "Ġsuper": 3089,
      "Ġlaw": 3090,
      "Given": 3091,
      "Ġcomposing": 3092,
      "Ġperspective": 3093,
      "60": 3094,
      "Ġgeometry": 3095,
      "ik": 3096,
      "balance": 3097,
      "Ġmaj": 3098,
      "Ġexec": 3099,
      "Ġbat": 3100,
      "Ġcolum": 3101,
      "stit": 3102,
      "iated": 3103,
      "Ġsymmet": 3104,
      "Ġdisplay": 3105,
      "Ġsimply": 3106,
      "ĠPl": 3107,
      "Ġtruth": 3108,
      "Ġunderlying": 3109,
      "Ġput": 3110,
      "adr": 3111,
      "reci": 3112,
      "Ġbudget": 3113,
      "Ġinterpret": 3114,
      "Finally": 3115,
      "Ġcommit": 3116,
      "items": 3117,
      "Ġwide": 3118,
      "hesis": 3119,
      "Ġwhy": 3120,
      "Ġvert": 3121,
      "Ġliving": 3122,
      "Ġ'[]": 3123,
      "Ġoffers": 3124,
      "Ġ'[]'.": 3125,
      "pha": 3126,
      "rap": 3127,
      "Ġpopular": 3128,
      "init": 3129,
      "Ġcombination": 3130,
      "Ġbul": 3131,
      "Ġregression": 3132,
      "uted": 3133,
      "}]</": 3134,
      "Ġrout": 3135,
      "Ġsecurity": 3136,
      "Ġitem": 3137,
      "ium": 3138,
      "Ġred": 3139,
      "Ġdom": 3140,
      "Ġexcept": 3141,
      "Ġdirection": 3142,
      "Ġchallenge": 3143,
      "Ġ13": 3144,
      "Ġpron": 3145,
      "âĪ": 3146,
      "Ġmen": 3147,
      "Next": 3148,
      "Ġport": 3149,
      "rets": 3150,
      "Ġtrust": 3151,
      "Ġreveal": 3152,
      "Ġstarted": 3153,
      "alle": 3154,
      "Ġshap": 3155,
      "Ġhold": 3156,
      "Ġadded": 3157,
      "Ġprevent": 3158,
      "Ġcompan": 3159,
      "14": 3160,
      "Ġemployee": 3161,
      "Ġguide": 3162,
      "Ġratio": 3163,
      "Ġinfluenc": 3164,
      "Ġauthentic": 3165,
      "Ġusage": 3166,
      "zz": 3167,
      "Ġ\\\\": 3168,
      "Ġfig": 3169,
      "Ġthread": 3170,
      "ĠEng": 3171,
      "ored": 3172,
      "Ġfinding": 3173,
      "ĠAmeric": 3174,
      "ĠThere": 3175,
      "Ġcat": 3176,
      "ids": 3177,
      "iddle": 3178,
      "Ġfull": 3179,
      "aged": 3180,
      "med": 3181,
      "rig": 3182,
      "Ġdefin": 3183,
      "Ġscenari": 3184,
      "Ġsurface": 3185,
      "Ġappreci": 3186,
      "Ġresid": 3187,
      "Ġded": 3188,
      "List": 3189,
      "Ġexisting": 3190,
      "Ġstates": 3191,
      "Ġdeb": 3192,
      "inked": 3193,
      "Ġactive": 3194,
      "Ġextre": 3195,
      "Ġfix": 3196,
      "])": 3197,
      "Ġlogical": 3198,
      "Ġlen": 3199,
      "Ġgives": 3200,
      "Ġsmaller": 3201,
      "lection": 3202,
      "Ġstructures": 3203,
      "Ġwa": 3204,
      "():": 3205,
      "Ġphrases": 3206,
      "Ġparent": 3207,
      "ĊĊ": 3208,
      "Ġexpected": 3209,
      "aced": 3210,
      "iet": 3211,
      "Ġlat": 3212,
      "pre": 3213,
      "Ġclimate": 3214,
      "pite": 3215,
      "Ġcontains": 3216,
      "ulate": 3217,
      "?\"": 3218,
      "Ġuntil": 3219,
      "Ġimmersive": 3220,
      "Ġthroughout": 3221,
      "Ġphot": 3222,
      "itch": 3223,
      "chan": 3224,
      "Ġatmosphere": 3225,
      "Ġinterests": 3226,
      "ler": 3227,
      "writing": 3228,
      "Ġtrends": 3229,
      "term": 3230,
      "aris": 3231,
      "queue": 3232,
      "Ġ40": 3233,
      "Ġopportunity": 3234,
      "Ġconvert": 3235,
      "ops": 3236,
      "ilit": 3237,
      "Ġarguments": 3238,
      "Ġtim": 3239,
      "Ġshowc": 3240,
      "Ġreli": 3241,
      "oon": 3242,
      "Ġloss": 3243,
      "Ġmid": 3244,
      "Ġgram": 3245,
      "Ġdifferences": 3246,
      "Ġhistorical": 3247,
      "Ġmonths": 3248,
      "Ġintentions": 3249,
      "Ġpronou": 3250,
      "Ġquick": 3251,
      "Ġfields": 3252,
      "ĠRes": 3253,
      "Ġmedian": 3254,
      "Ġderiv": 3255,
      "Ġcontinuous": 3256,
      "Ġcamp": 3257,
      "Ġprioritize": 3258,
      "Ġmyster": 3259,
      "ĠMy": 3260,
      "ĠAdditionally": 3261,
      "Ġconstruct": 3262,
      "ton": 3263,
      "Ġlive": 3264,
      "Ġaim": 3265,
      "oll": 3266,
      "Emily": 3267,
      "Ġtree": 3268,
      "Ġinterse": 3269,
      "oved": 3270,
      "ĠDefault": 3271,
      "Ġincludes": 3272,
      "Enter": 3273,
      "Ġnormal": 3274,
      "Ġexplan": 3275,
      "Ġnetwork": 3276,
      "size": 3277,
      "Ġdate": 3278,
      "enue": 3279,
      "\"}}},": 3280,
      "Ġ\"\"\"": 3281,
      "Ultimately": 3282,
      "Ġadvanced": 3283,
      "man": 3284,
      "alf": 3285,
      "ccount": 3286,
      "Ġearly": 3287,
      "ĠInstead": 3288,
      "Ġgetting": 3289,
      "Ġheight": 3290,
      "Ġsource": 3291,
      "next": 3292,
      "sole": 3293,
      "Ġtend": 3294,
      "Ġaccording": 3295,
      "Ġdrive": 3296,
      "Ġdaily": 3297,
      "Ġslow": 3298,
      "comes": 3299,
      "liers": 3300,
      "ection": 3301,
      "Ġsecrets": 3302,
      "Ġrestaur": 3303,
      "Ġpack": 3304,
      "Ġdial": 3305,
      "Ġwar": 3306,
      "19": 3307,
      "olving": 3308,
      "Ġmatch": 3309,
      "Ġquadr": 3310,
      "Ġ14": 3311,
      "ĠSp": 3312,
      "inating": 3313,
      "Ġconsid": 3314,
      "Ġcry": 3315,
      "Ġdu": 3316,
      "Ġrecurs": 3317,
      "Ġaware": 3318,
      "ĠValue": 3319,
      "Ġpercent": 3320,
      "++": 3321,
      "Ġseason": 3322,
      "Ġsymbol": 3323,
      "Ġpiece": 3324,
      "cle": 3325,
      "Ġfalse": 3326,
      "Ġbinary": 3327,
      "ĠOn": 3328,
      "Ġpattern": 3329,
      "eger": 3330,
      "astic": 3331,
      "Ġmotivations": 3332,
      "erson": 3333,
      "Ġincorporating": 3334,
      "ole": 3335,
      "Ġpolynomial": 3336,
      "Provide": 3337,
      "Ġprivate": 3338,
      "Ġstra": 3339,
      "uting": 3340,
      "go": 3341,
      "Ġlibrary": 3342,
      "Ġinvestig": 3343,
      "oms": 3344,
      "Ġmajor": 3345,
      "Ġdone": 3346,
      "Ġseems": 3347,
      "from": 3348,
      "Ġpractices": 3349,
      "ones": 3350,
      "Ġoutcomes": 3351,
      "Ġdynamic": 3352,
      "__(": 3353,
      "Ġwilling": 3354,
      "Ġnever": 3355,
      "Ġstress": 3356,
      "abase": 3357,
      "Ġfel": 3358,
      "Ġ60": 3359,
      "Ġsignificantly": 3360,
      "oration": 3361,
      "clusive": 3362,
      "Ġsources": 3363,
      "Ġprotect": 3364,
      "ĠMay": 3365,
      "ban": 3366,
      "On": 3367,
      "Ġmention": 3368,
      "abit": 3369,
      "Ġstrings": 3370,
      "Ġdigital": 3371,
      "Ġmanip": 3372,
      "Ġshared": 3373,
      "Ġvirtual": 3374,
      "ogue": 3375,
      "ĊĠĠĠĠĠĠĠĠĠĠĠĠĠĠĠĠĠĠĠ": 3376,
      "Ġchallenging": 3377,
      "ĠInt": 3378,
      "Ġmechan": 3379,
      "ael": 3380,
      "Ġschedu": 3381,
      "Ġful": 3382,
      "ĠĠĠĠĠĠĠĠĠĠĠĠĠĠĠĠ": 3383,
      "Ġbooks": 3384,
      "22": 3385,
      "Ġhy": 3386,
      "friend": 3387,
      "ume": 3388,
      "ration": 3389,
      "ows": 3390,
      "ork": 3391,
      "Ġsorted": 3392,
      "Cl": 3393,
      "Ġspecified": 3394,
      "--------": 3395,
      "Ġwonder": 3396,
      "Ġrecord": 3397,
      "book": 3398,
      "Ġcomfort": 3399,
      "Ġfasc": 3400,
      "Ġfeelings": 3401,
      "oin": 3402,
      "Ġassess": 3403,
      "Ġremaining": 3404,
      "void": 3405,
      "Ġcomprehensive": 3406,
      "())": 3407,
      "ĠSome": 3408,
      "Ġcompelling": 3409,
      "ĠUsing": 3410,
      "Ġdetailed": 3411,
      "\".": 3412,
      "mon": 3413,
      "ured": 3414,
      "Ġpaper": 3415,
      "ĠPerhaps": 3416,
      "wise": 3417,
      "Ġcause": 3418,
      "Ġupon": 3419,
      "append": 3420,
      "Ġlandsc": 3421,
      "alpha": 3422,
      "Over": 3423,
      "Ġtowards": 3424,
      "Ġbar": 3425,
      "care": 3426,
      "ER": 3427,
      "being": 3428,
      "ĠCreate": 3429,
      "ologies": 3430,
      "Ġrelat": 3431,
      "Ġthemes": 3432,
      "col": 3433,
      "Ġhot": 3434,
      "Ġmoney": 3435,
      "Ġobt": 3436,
      "Ġreducing": 3437,
      "Ġextreme": 3438,
      "Ġ:": 3439,
      "Ġcountry": 3440,
      "Ġvector": 3441,
      "Ġfamil": 3442,
      "Use": 3443,
      "Ġrates": 3444,
      "words": 3445,
      "Ġqueue": 3446,
      "Ġprem": 3447,
      "ffee": 3448,
      "Ġlot": 3449,
      "load": 3450,
      "olute": 3451,
      "abilities": 3452,
      "cho": 3453,
      "ighb": 3454,
      "->": 3455,
      "Ġcenter": 3456,
      "sort": 3457,
      "olve": 3458,
      "Ġcou": 3459,
      "45": 3460,
      "Ġbuilt": 3461,
      "Ġfast": 3462,
      "Ġcollaboration": 3463,
      "Ġlaunch": 3464,
      "Ġsignificance": 3465,
      "^(": 3466,
      "Ġinteresting": 3467,
      "Ġtou": 3468,
      "nc": 3469,
      "}\")": 3470,
      "mit": 3471,
      "ĠJohn": 3472,
      "Ġemerg": 3473,
      "Ġpaint": 3474,
      "circ": 3475,
      "Ġassociated": 3476,
      "Ġann": 3477,
      "Ġtal": 3478,
      "erve": 3479,
      "Ġprinci": 3480,
      "Ġhappy": 3481,
      "earch": 3482,
      "vent": 3483,
      "Ġweb": 3484,
      "arily": 3485,
      "})": 3486,
      "Ġachie": 3487,
      "Ġeasy": 3488,
      "roll": 3489,
      "Ġtransportation": 3490,
      "obal": 3491,
      "Ġflex": 3492,
      "Ġ+=": 3493,
      "Ġcorresponding": 3494,
      "known": 3495,
      "Ġsuff": 3496,
      "Ġharm": 3497,
      "Ġyet": 3498,
      "Ġconsidered": 3499,
      "Ġdecre": 3500,
      "Ġinnovative": 3501,
      "ĠÂ": 3502,
      "ĠSim": 3503,
      "Ġsubt": 3504,
      "empt": 3505,
      "ĠSystem": 3506,
      "Ġregion": 3507,
      "encies": 3508,
      "ster": 3509,
      "Ġ%": 3510,
      "Ġcomes": 3511,
      "Ġske": 3512,
      "apan": 3513,
      "Ġmodern": 3514,
      "Ġ24": 3515,
      "Ġhost": 3516,
      "Ġinformed": 3517,
      "Ġnull": 3518,
      "Ġcoefficient": 3519,
      "Ġinner": 3520,
      "ites": 3521,
      "Ġspeed": 3522,
      "ĠSe": 3523,
      "Ġseparate": 3524,
      "node": 3525,
      "uild": 3526,
      "Ġexhib": 3527,
      "itor": 3528,
      "egin": 3529,
      "alls": 3530,
      "illion": 3531,
      "Ġevaluate": 3532,
      "Ġbasic": 3533,
      "draw": 3534,
      "pper": 3535,
      "Ġdefined": 3536,
      "urthermore": 3537,
      "ĠAPI": 3538,
      "ĠThen": 3539,
      "Ġlocations": 3540,
      "Ġbelie": 3541,
      "Ġeconomic": 3542,
      "ON": 3543,
      "order": 3544,
      "Ġinteractive": 3545,
      "Ġwarm": 3546,
      "Ġeasier": 3547,
      "Ġcore": 3548,
      "Ġtruly": 3549,
      "Ġoffering": 3550,
      "Ġinfinite": 3551,
      "Ġapplication": 3552,
      "BC": 3553,
      "leep": 3554,
      "Ġappear": 3555,
      "Ġoptim": 3556,
      "aff": 3557,
      "Ġexerc": 3558,
      "Ġvideo": 3559,
      "Ġuseful": 3560,
      "ott": 3561,
      "Ġensuring": 3562,
      "da": 3563,
      "Ġtesting": 3564,
      "Ġincreased": 3565,
      "Ġut": 3566,
      "dent": 3567,
      "Ġcreated": 3568,
      "ĠEach": 3569,
      "Ġopp": 3570,
      "ifically": 3571,
      "ger": 3572,
      "Ġoutliers": 3573,
      "mathb": 3574,
      "Ġnote": 3575,
      "Ġattrib": 3576,
      "80": 3577,
      "Ġrisks": 3578,
      "},{\"": 3579,
      "Ġmystery": 3580,
      "Ġones": 3581,
      "ĠSo": 3582,
      "quad": 3583,
      "iver": 3584,
      "inations": 3585,
      "Tr": 3586,
      "Ġconfidence": 3587,
      "ĠInd": 3588,
      "ĠLe": 3589,
      "ĠOr": 3590,
      "Ġclean": 3591,
      "artment": 3592,
      "ĠJapan": 3593,
      "Ġprojects": 3594,
      "ĠID": 3595,
      "ease": 3596,
      "Ġunit": 3597,
      "arah": 3598,
      "Ġdemand": 3599,
      "hold": 3600,
      "Ġcover": 3601,
      "Ġcompanies": 3602,
      "iar": 3603,
      "Ġrepresentation": 3604,
      "Ġcell": 3605,
      "Ġdivide": 3606,
      "Ġcomputer": 3607,
      "Ġminimum": 3608,
      "af": 3609,
      "rive": 3610,
      "Ġforest": 3611,
      "sub": 3612,
      "osit": 3613,
      "Ġlonger": 3614,
      "Ġoutside": 3615,
      "world": 3616,
      "Hi": 3617,
      "bo": 3618,
      "Ġlab": 3619,
      "Ġrespond": 3620,
      "ulations": 3621,
      "Ġremains": 3622,
      "Ġthr": 3623,
      "Ġfant": 3624,
      "Ġmaintaining": 3625,
      "Ġdialogue": 3626,
      "\"]}}},{\"": 3627,
      "sy": 3628,
      "Ġcos": 3629,
      "Ġlost": 3630,
      "Ġchance": 3631,
      "ĠJava": 3632,
      "'(": 3633,
      "ask": 3634,
      "Ġcred": 3635,
      "oub": 3636,
      "Ġpreserv": 3637,
      "Ġvoid": 3638,
      "eturn": 3639,
      "down": 3640,
      "ceed": 3641,
      "Ġpronouns": 3642,
      "plied": 3643,
      "Ġbackground": 3644,
      "Ġtour": 3645,
      "ctors": 3646,
      "Ġdefine": 3647,
      "Ġchecks": 3648,
      "Ġprograms": 3649,
      "anged": 3650,
      "Ġadvance": 3651,
      "Ġaf": 3652,
      "amed": 3653,
      "Ġphysics": 3654,
      "ensive": 3655,
      "Ã©": 3656,
      "Ġhear": 3657,
      "Ġcoffee": 3658,
      "Ġencourage": 3659,
      "ĠFalse": 3660,
      "Ġshows": 3661,
      "24": 3662,
      "gment": 3663,
      "Ġtoday": 3664,
      "Ġfeature": 3665,
      "Ġcoordin": 3666,
      "Ġgather": 3667,
      "Ġrefine": 3668,
      "Ġ\\).": 3669,
      "Ġheav": 3670,
      "Ġimag": 3671,
      "Ġblock": 3672,
      "Ġexperienc": 3673,
      "Ġweather": 3674,
      "pected": 3675,
      "Ġresulting": 3676,
      "Ġpairs": 3677,
      "Ġlists": 3678,
      "Ġangle": 3679,
      "Ġweak": 3680,
      "ðŁ": 3681,
      "Ġunits": 3682,
      "stack": 3683,
      "plit": 3684,
      "like": 3685,
      "erate": 3686,
      "racy": 3687,
      "Ġclasses": 3688,
      "Ġinequ": 3689,
      "Ġexpand": 3690,
      "Ġexception": 3691,
      "Ġsuccessful": 3692,
      "Ġled": 3693,
      "urrent": 3694,
      "Ġwaste": 3695,
      "integer": 3696,
      "Ġsafety": 3697,
      "inter": 3698,
      "ellig": 3699,
      "Ġnames": 3700,
      "Ġexactly": 3701,
      "Ġsuitable": 3702,
      "Ġtemperature": 3703,
      "Ġwritten": 3704,
      "yond": 3705,
      "rect": 3706,
      "Ġregards": 3707,
      "Ġground": 3708,
      "index": 3709,
      "Ġrepe": 3710,
      "Ġlimited": 3711,
      "where": 3712,
      "Ġaccept": 3713,
      "Ġincorporate": 3714,
      "Ġactivity": 3715,
      "Ġcut": 3716,
      "ened": 3717,
      "way": 3718,
      "Ġremember": 3719,
      "ky": 3720,
      "cal": 3721,
      "ying": 3722,
      "ints": 3723,
      "Remember": 3724,
      "Ġleave": 3725,
      "}$,": 3726,
      "score": 3727,
      "ommod": 3728,
      "Ġenough": 3729,
      "Ġillustr": 3730,
      "br": 3731,
      "Ġisol": 3732,
      "Ġschedule": 3733,
      "']": 3734,
      "Ġengagement": 3735,
      "Ġcentral": 3736,
      "Ġactually": 3737,
      "Ġbreat": 3738,
      "uations": 3739,
      "Ġpractice": 3740,
      "overy": 3741,
      "iring": 3742,
      "Ġguidance": 3743,
      "Ġsection": 3744,
      "Ġindeed": 3745,
      "fact": 3746,
      "Ġorganization": 3747,
      "Ġindicates": 3748,
      "},\"": 3749,
      "Ġtax": 3750,
      "Ġbig": 3751,
      "useum": 3752,
      "Ġrevenue": 3753,
      "Ġarch": 3754,
      "Ġbroad": 3755,
      "Ġreasoning": 3756,
      "Ġobtain": 3757,
      "Ġanalyzing": 3758,
      "Ġveh": 3759,
      "Ġimage": 3760,
      "cont": 3761,
      "pass": 3762,
      "Ġimprovement": 3763,
      "Ġremind": 3764,
      "Ġencount": 3765,
      "ĠPr": 3766,
      "Ġplatforms": 3767,
      "Ġscene": 3768,
      "Ġsoftware": 3769,
      "Ġcontribute": 3770,
      "Ġtu": 3771,
      "Ġneighb": 3772,
      "Ġwatch": 3773,
      "Ġsounds": 3774,
      "Ġsociety": 3775,
      "Ġimmed": 3776,
      "Ġderivative": 3777,
      "ĠAt": 3778,
      "Ġmatter": 3779,
      "phr": 3780,
      "Ġcities": 3781,
      "Ġabilities": 3782,
      "ĠValueError": 3783,
      "Ġri": 3784,
      "Ġexcited": 3785,
      "Ġspread": 3786,
      "Ġfindings": 3787,
      "Ġelif": 3788,
      "Ġcard": 3789,
      "Ġ(-": 3790,
      "Ġconnected": 3791,
      "miss": 3792,
      "ĊĊĠĠ": 3793,
      "Ġserve": 3794,
      "Ġhalf": 3795,
      "onac": 3796,
      "itation": 3797,
      "Ġapply": 3798,
      "Ġtaken": 3799,
      "Ġbeyond": 3800,
      "emic": 3801,
      "ffic": 3802,
      "Ġcompare": 3803,
      "leq": 3804,
      "Ġdeveloping": 3805,
      "Ġtopic": 3806,
      "imensional": 3807,
      "Ġtests": 3808,
      "IN": 3809,
      "Ġproduction": 3810,
      "Ġplant": 3811,
      "Account": 3812,
      "Ġanx": 3813,
      "Ġprimary": 3814,
      "Ġund": 3815,
      "Ġwoman": 3816,
      "Ġforms": 3817,
      "Ġstatic": 3818,
      "Ġintegral": 3819,
      "Ġtrain": 3820,
      "Ġmist": 3821,
      "Ġinteractions": 3822,
      "Ġrequirements": 3823,
      "Is": 3824,
      "Ġbusinesses": 3825,
      "Ġgreen": 3826,
      "Ġdocument": 3827,
      "ĠWh": 3828,
      "Ġord": 3829,
      "Ġmeasures": 3830,
      "Ġvill": 3831,
      "Ġmachine": 3832,
      "Ġgovernment": 3833,
      "rics": 3834,
      "Ġhypothesis": 3835,
      "onacci": 3836,
      "23": 3837,
      "Ġ$(": 3838,
      "making": 3839,
      "Ġfive": 3840,
      "Ġ[]": 3841,
      "Ġmass": 3842,
      "Ġhon": 3843,
      "ched": 3844,
      "Ġpict": 3845,
      "Ġoperation": 3846,
      "Ġconsistent": 3847,
      "Ġtechnical": 3848,
      "Ġexploration": 3849,
      "illing": 3850,
      "Ġeveryone": 3851,
      "ĠâĢĺ": 3852,
      "17": 3853,
      "Ġresearc": 3854,
      "Ġcatch": 3855,
      "Ġmissing": 3856,
      "Ġcomponents": 3857,
      "icles": 3858,
      "ibonacci": 3859,
      "\");": 3860,
      "ln": 3861,
      "Ġnews": 3862,
      "ewrite": 3863,
      "idth": 3864,
      "String": 3865,
      "ios": 3866,
      "Ġfun": 3867,
      "Ġrequest": 3868,
      "['": 3869,
      "iful": 3870,
      "Ġoffic": 3871,
      "with": 3872,
      "Ġsubtle": 3873,
      "Ġsafe": 3874,
      "lier": 3875,
      "Ġwalk": 3876,
      "Ġfail": 3877,
      "Ġparts": 3878,
      "Using": 3879,
      "Ġefforts": 3880,
      "pectives": 3881,
      "friendly": 3882,
      "Ġemb": 3883,
      "Ġattempt": 3884,
      "Ġmysterious": 3885,
      "eks": 3886,
      "Ġexpectations": 3887,
      "Ġpromote": 3888,
      "bing": 3889,
      "enses": 3890,
      "iveness": 3891,
      "life": 3892,
      "Ġpolicy": 3893,
      "ativity": 3894,
      "Ġassign": 3895,
      "Ġfarm": 3896,
      "Ġspent": 3897,
      ")/": 3898,
      "Ġpo": 3899,
      "Ġassumptions": 3900,
      "Ġfeels": 3901,
      "Ġpage": 3902,
      "Ġaccommod": 3903,
      "Ġperspectives": 3904,
      "Ġdates": 3905,
      "Ġtechnologies": 3906,
      "Ġplanet": 3907,
      "Ġcollection": 3908,
      "ĠMr": 3909,
      "Ġregard": 3910,
      "Ġdeveloped": 3911,
      "length": 3912,
      "Re": 3913,
      "Ġmiddle": 3914,
      "Ġsupp": 3915,
      "Ġimmediate": 3916,
      "Ġdead": 3917,
      "Ġax": 3918,
      "Ġcreates": 3919,
      "Ġwanted": 3920,
      "Ġinvolved": 3921,
      "ached": 3922,
      "Ġunex": 3923,
      "Ġrelatable": 3924,
      "Ġthreat": 3925,
      "Ġdiscover": 3926,
      "Ġste": 3927,
      "gra": 3928,
      "Ġprogramming": 3929,
      "ambda": 3930,
      "irm": 3931,
      "Ġplayer": 3932,
      "Ġdedic": 3933,
      "Please": 3934,
      "Ġlack": 3935,
      "Ġ90": 3936,
      "Ġpassion": 3937,
      "Ġconference": 3938,
      "Ġoutcome": 3939,
      "Ġconcern": 3940,
      "Cont": 3941,
      "Data": 3942,
      "}}{": 3943,
      "Ġsmooth": 3944,
      "etime": 3945,
      "onic": 3946,
      "Ġspir": 3947,
      "ĠNode": 3948,
      ".'": 3949,
      "py": 3950,
      "Ġcontrast": 3951,
      "lights": 3952,
      "Ġdouble": 3953,
      "Ġlies": 3954,
      "Ġquadratic": 3955,
      "inator": 3956,
      "Ġprecise": 3957,
      "Ġrephr": 3958,
      "Ġexists": 3959,
      "Ġrule": 3960,
      "Ġpartner": 3961,
      "Ġapproximately": 3962,
      "Ġcalculated": 3963,
      "uff": 3964,
      "ls": 3965,
      "iciency": 3966,
      "ertaint": 3967,
      "Ġreading": 3968,
      "Ġdiverse": 3969,
      "iversity": 3970,
      "Ġquery": 3971,
      "^\\": 3972,
      "dom": 3973,
      "Ġfavor": 3974,
      "Ġfloat": 3975,
      "90": 3976,
      "public": 3977,
      "Ġdoor": 3978,
      "Ġfost": 3979,
      "Ġrecent": 3980,
      "ipment": 3981,
      "rightarrow": 3982,
      "Ġmiles": 3983,
      "Ġpow": 3984,
      "Alternatively": 3985,
      "orld": 3986,
      "Ġstream": 3987,
      "Ġspeak": 3988,
      "ithmetic": 3989,
      "ned": 3990,
      "Ġfocused": 3991,
      "Ġvibr": 3992,
      "Ġnovel": 3993,
      "Ġtouch": 3994,
      "rees": 3995,
      "Ġindicate": 3996,
      "Ġpersonality": 3997,
      "ĠEar": 3998,
      "Ġcarefully": 3999,
      "Ġintellig": 4000,
      "step": 4001,
      "Ġpotentially": 4002,
      "Ġenter": 4003,
      "iverse": 4004,
      "Ġfascinating": 4005,
      "Ġboundaries": 4006,
      "test": 4007,
      "ister": 4008,
      "Ġtransformation": 4009,
      "Ġlif": 4010,
      "ded": 4011,
      "osed": 4012,
      "Ġmodify": 4013,
      "bit": 4014,
      "Ġeverything": 4015,
      "ales": 4016,
      "ony": 4017,
      "Some": 4018,
      "Ġseeking": 4019,
      "ĠRewrite": 4020,
      "Ġunf": 4021,
      "dis": 4022,
      "Ġdatabase": 4023,
      "Ġchann": 4024,
      "outh": 4025,
      "ansion": 4026,
      "Ġradius": 4027,
      "Ġpark": 4028,
      "oyal": 4029,
      "Ġplane": 4030,
      "ĠHer": 4031,
      "Ġchoices": 4032,
      "values": 4033,
      "Ġcurve": 4034,
      "hing": 4035,
      "ĠDefaults": 4036,
      "yg": 4037,
      "plain": 4038,
      "icients": 4039,
      "Ġrecursive": 4040,
      "Ġwin": 4041,
      "Ġimplies": 4042,
      "Ġlater": 4043,
      "Ġexperiment": 4044,
      "With": 4045,
      "Ġfinds": 4046,
      "Ġvary": 4047,
      "Ġintric": 4048,
      "Ġsalary": 4049,
      "Ġforce": 4050,
      "200": 4051,
      "Ġchat": 4052,
      "Ġroad": 4053,
      "struction": 4054,
      "Ġleaving": 4055,
      "Ġant": 4056,
      "Ġrelatively": 4057,
      "lines": 4058,
      "Ġworksh": 4059,
      "Ġattract": 4060,
      "lear": 4061,
      "ĠDr": 4062,
      "Ġfresh": 4063,
      "reed": 4064,
      "ĠUS": 4065,
      "Number": 4066,
      "Ġ<=": 4067,
      "Ġstruggle": 4068,
      "oding": 4069,
      "Ġprocesses": 4070,
      "Ġglobal": 4071,
      "ck": 4072,
      "Ġacknow": 4073,
      "Ġpsy": 4074,
      "Ġconfront": 4075,
      "Ġter": 4076,
      "eterm": 4077,
      "Ġlittle": 4078,
      "write": 4079,
      "Ġ$$": 4080,
      "Ġmodule": 4081,
      "Ġswitch": 4082,
      "ulner": 4083,
      "oke": 4084,
      "Ġdream": 4085,
      "Ġpressure": 4086,
      "rope": 4087,
      "ĠBl": 4088,
      "Ġsess": 4089,
      "Ġdepending": 4090,
      "isms": 4091,
      "Ġwhis": 4092,
      "Ġdesired": 4093,
      "Ġfoundation": 4094,
      "ifies": 4095,
      "Ġodd": 4096,
      "Ġwild": 4097,
      "Ġsharing": 4098,
      "Ġflaw": 4099,
      "Ġdriving": 4100,
      "aign": 4101,
      "Ġcoefficients": 4102,
      "Ġbeauty": 4103,
      "Ġbackst": 4104,
      "Ġadvice": 4105,
      "Ġtail": 4106,
      "Ġfelt": 4107,
      "Ġcolumn": 4108,
      "Ġsmart": 4109,
      "Ġchart": 4110,
      "Ġ80": 4111,
      "ians": 4112,
      "lated": 4113,
      "Ġhour": 4114,
      "Ġremove": 4115,
      "Ġhandling": 4116,
      "hest": 4117,
      "eta": 4118,
      "Ġisland": 4119,
      "aks": 4120,
      "ĠGo": 4121,
      "result": 4122,
      "Ġplans": 4123,
      "Ġhands": 4124,
      "Fet": 4125,
      "Ġlandscape": 4126,
      "Ġblack": 4127,
      "Ġcop": 4128,
      "ĠAmerican": 4129,
      "Ġdivided": 4130,
      "Ġsecure": 4131,
      "Ġbal": 4132,
      "Ġrunning": 4133,
      "Ġmeaningful": 4134,
      "SE": 4135,
      "Ġinstall": 4136,
      "ued": 4137,
      "Ġuniverse": 4138,
      "ux": 4139,
      "Ġfear": 4140,
      "Ġfigure": 4141,
      "Ġanything": 4142,
      "Ġblue": 4143,
      "Ġdecl": 4144,
      "icit": 4145,
      "matrix": 4146,
      "Ġcharacteristics": 4147,
      "Ġpossibilities": 4148,
      "omen": 4149,
      "Ġvisitors": 4150,
      "itect": 4151,
      "Ġpreferences": 4152,
      "une": 4153,
      "Ġduplic": 4154,
      "Ġalgorithms": 4155,
      "Ġbeautiful": 4156,
      "Ġincome": 4157,
      "Ġcircum": 4158,
      "Ġfrequency": 4159,
      "Ġvulner": 4160,
      "Ġautom": 4161,
      "Ġcontaining": 4162,
      "Ġincreases": 4163,
      "75": 4164,
      "Ġweeks": 4165,
      "Ġdelic": 4166,
      "Ġappears": 4167,
      "java": 4168,
      "ensity": 4169,
      "Ġpartn": 4170,
      "Ġparalle": 4171,
      "az": 4172,
      "Ġprofound": 4173,
      "Ġalgebraic": 4174,
      "Ġgrammar": 4175,
      "find": 4176,
      "asy": 4177,
      "Ġcub": 4178,
      "Ġmedical": 4179,
      "Ġstatistics": 4180,
      "Ġpassword": 4181,
      "Ġthing": 4182,
      "Ġsend": 4183,
      "Ġletter": 4184,
      "Ġsleep": 4185,
      ".\"},\"": 4186,
      "ãģ": 4187,
      "Ġlimitations": 4188,
      "Ar": 4189,
      "Ġexpon": 4190,
      "Ġequipment": 4191,
      "ello": 4192,
      "ptive": 4193,
      "ternal": 4194,
      "Ġattend": 4195,
      "Ġdog": 4196,
      "Ġdevices": 4197,
      "Ġmentioned": 4198,
      "Ġupdated": 4199,
      "begin": 4200,
      "Ġgarden": 4201,
      "Ġtitle": 4202,
      "Ġcontact": 4203,
      "Ġpush": 4204,
      "Ġinequality": 4205,
      "atory": 4206,
      "Ġtrees": 4207,
      "ĠÃ": 4208,
      "Ġactual": 4209,
      "Ġkeys": 4210,
      "Ġbegan": 4211,
      "Ġemp": 4212,
      "ertainty": 4213,
      "Ġtraffic": 4214,
      "Ġchanged": 4215,
      "ocation": 4216,
      "Ġstatements": 4217,
      "Ġdam": 4218,
      "Ġunknown": 4219,
      "Ġrules": 4220,
      "Ġdetail": 4221,
      "ĠMon": 4222,
      "Ġarrange": 4223,
      "Ġrespective": 4224,
      "Ġcreativity": 4225,
      "0000": 4226,
      "Ġrot": 4227,
      "Ġstri": 4228,
      "Ġhighlights": 4229,
      "Ġsin": 4230,
      "Ġmultip": 4231,
      "Ġconduct": 4232,
      "Ġprices": 4233,
      "rief": 4234,
      "}.": 4235,
      "Ġfair": 4236,
      "cy": 4237,
      "istance": 4238,
      "Ġarithmetic": 4239,
      "Ġcampaign": 4240,
      "Ġcomplexities": 4241,
      "Ġet": 4242,
      "Ġshift": 4243,
      "Ġframework": 4244,
      "reg": 4245,
      "Ġestimate": 4246,
      "icro": 4247,
      "anging": 4248,
      "Ġcross": 4249,
      "icing": 4250,
      "There": 4251,
      "Ġplants": 4252,
      "Overall": 4253,
      "Ġrelax": 4254,
      "Ġmanager": 4255,
      "Ġcand": 4256,
      "Ġsolar": 4257,
      "21": 4258,
      "Ġcolors": 4259,
      "He": 4260,
      "Ġsil": 4261,
      "igen": 4262,
      "cean": 4263,
      "Ġpatient": 4264,
      "ography": 4265,
      "Ġtreatment": 4266,
      "ĠCheck": 4267,
      "ĠÏ": 4268,
      "Ġquickly": 4269,
      "Ġadvent": 4270,
      "Ġliter": 4271,
      "ptic": 4272,
      "Ġsho": 4273,
      "anks": 4274,
      "rown": 4275,
      "Ġupdate": 4276,
      "att": 4277,
      "Node": 4278,
      "Ġestim": 4279,
      "Ġcommunities": 4280,
      "Ġtang": 4281,
      "Ġexplanation": 4282,
      "Ġstraight": 4283,
      "main": 4284,
      "most": 4285,
      "Ġmath": 4286,
      "Ġlogic": 4287,
      "asons": 4288,
      "Int": 4289,
      "connect": 4290,
      "Ġ!": 4291,
      "Ġwhole": 4292,
      "works": 4293,
      "Ġproduce": 4294,
      "Ġid": 4295,
      "Ġinvestment": 4296,
      "ĠEarth": 4297,
      "LE": 4298,
      "Ġnamed": 4299,
      "Ġtap": 4300,
      "Ġoverw": 4301,
      "}^{": 4302,
      "Ġrefer": 4303,
      "uration": 4304,
      "Ġrepresenting": 4305,
      "rome": 4306,
      "Ġcounter": 4307,
      "Ġlatest": 4308,
      "Ġsimplify": 4309,
      "Ġtips": 4310,
      "Ġsold": 4311,
      "hand": 4312,
      "AR": 4313,
      "Ġgre": 4314,
      "ogle": 4315,
      "Ġsup": 4316,
      "QL": 4317,
      "Ġsurv": 4318,
      "My": 4319,
      "ichael": 4320,
      "Ġmagn": 4321,
      "cosystem": 4322,
      "ese": 4323,
      "Ġretrie": 4324,
      "Ġstaff": 4325,
      "Ġhelpful": 4326,
      "start": 4327,
      "include": 4328,
      "imin": 4329,
      "cell": 4330,
      "agn": 4331,
      "Ġhighly": 4332,
      "Ġorganizations": 4333,
      "Ġprepared": 4334,
      "Ġhar": 4335,
      "Ġgrand": 4336,
      "Ġrepresented": 4337,
      "Ġanxiety": 4338,
      "Ġmap": 4339,
      "oving": 4340,
      "Ġsix": 4341,
      "Ġconv": 4342,
      "off": 4343,
      "Ġproper": 4344,
      "Ġanim": 4345,
      "ean": 4346,
      "Furthermore": 4347,
      "AT": 4348,
      "ien": 4349,
      "####": 4350,
      "Ġgrowing": 4351,
      "rupt": 4352,
      "Ġslight": 4353,
      "ĠEurope": 4354,
      "Ġindicating": 4355,
      "Ġtook": 4356,
      "Ġresource": 4357,
      "Ġshad": 4358,
      "Ġtick": 4359,
      "Ġabsolute": 4360,
      "uel": 4361,
      "Ġappreciate": 4362,
      "ĠMake": 4363,
      "ht": 4364,
      "Ġaccessible": 4365,
      "Ġconflicts": 4366,
      "Ġbir": 4367,
      "acing": 4368,
      "ump": 4369,
      "Ġoverwhel": 4370,
      "Ġextra": 4371,
      "ĠSu": 4372,
      "Ġtold": 4373,
      "Ġecosystem": 4374,
      "Ġsecret": 4375,
      "ĠJack": 4376,
      "Ġincred": 4377,
      "Ġrestaurant": 4378,
      "Ġprefer": 4379,
      "Find": 4380,
      "eline": 4381,
      "Ġlargest": 4382,
      "Ġrobust": 4383,
      "Ġarticle": 4384,
      "Ġspecies": 4385,
      "const": 4386,
      "float": 4387,
      "ĠUnited": 4388,
      "Res": 4389,
      "ĠGiven": 4390,
      "Ġamb": 4391,
      "nesses": 4392,
      "Ġmoments": 4393,
      "cles": 4394,
      "agram": 4395,
      "Ġwr": 4396,
      "De": 4397,
      "Ġmoving": 4398,
      "Ġhor": 4399,
      "Ġimproved": 4400,
      "Ġstudies": 4401,
      "Ġfixed": 4402,
      "ĠâĪļ": 4403,
      "Ġremainder": 4404,
      "Ġphen": 4405,
      "Ġq": 4406,
      "Ġproport": 4407,
      "Ġphone": 4408,
      "Ġscientific": 4409,
      "ĠTheorem": 4410,
      "Ġchanging": 4411,
      "uracy": 4412,
      "Ġuncover": 4413,
      "Ġmetrics": 4414,
      "matic": 4415,
      "33": 4416,
      "erge": 4417,
      "Ġbackstory": 4418,
      "Ġ\\),": 4419,
      "dimensional": 4420,
      "Ġinsight": 4421,
      "Ġexpressed": 4422,
      "ĠWorld": 4423,
      "nums": 4424,
      "overed": 4425,
      "Name": 4426,
      "Ġmit": 4427,
      "Ġsusp": 4428,
      "inf": 4429,
      "Ġpolit": 4430,
      "anger": 4431,
      "Ġloyal": 4432,
      "Ġexistence": 4433,
      "Ġproof": 4434,
      "ably": 4435,
      "Ġoptimize": 4436,
      "assert": 4437,
      "overrightarrow": 4438,
      "Ġdescriptive": 4439,
      "Ġexplicit": 4440,
      "Ġing": 4441,
      "stract": 4442,
      "ĠEnglish": 4443,
      "ĠPh": 4444,
      "Ġenth": 4445,
      "Ġpresentation": 4446,
      "Ġiniti": 4447,
      "ĠData": 4448,
      "Ġscenario": 4449,
      "Ġgold": 4450,
      "Ġhealthcare": 4451,
      "Ġir": 4452,
      "Ġrepl": 4453,
      "Ġedge": 4454,
      "John": 4455,
      "Ġsubtract": 4456,
      "Ġminimize": 4457,
      "Ġ_": 4458,
      "len": 4459,
      "Ġstrengths": 4460,
      "=\\": 4461,
      "ervation": 4462,
      "Ġdevice": 4463,
      "Ġeye": 4464,
      "Ġpossibility": 4465,
      "Ġphenomen": 4466,
      "Sub": 4467,
      "ilos": 4468,
      "dri": 4469,
      "Ġacad": 4470,
      "ĠDes": 4471,
      "Ġvariance": 4472,
      "05": 4473,
      "iding": 4474,
      "Ġstatus": 4475,
      "Ġinh": 4476,
      "Note": 4477,
      "{(": 4478,
      "Ġadvant": 4479,
      "Ġbegins": 4480,
      "Ġagree": 4481,
      "Ġintroduce": 4482,
      "sec": 4483,
      "Ġcapture": 4484,
      "Ġprote": 4485,
      "Ġsubs": 4486,
      "Ġdeath": 4487,
      "ĠReturn": 4488,
      "std": 4489,
      "Ġearlier": 4490,
      "Ġultimately": 4491,
      "Ġoutd": 4492,
      "Ġdigits": 4493,
      "Ġvolume": 4494,
      "ison": 4495,
      "Ġclimb": 4496,
      "Ġfire": 4497,
      "Ġwood": 4498,
      "oming": 4499,
      "Ġnumerous": 4500,
      "Ġment": 4501,
      "Ġextract": 4502,
      "Ġroll": 4503,
      "ache": 4504,
      "Ġunexpected": 4505,
      "Ġpal": 4506,
      "Ġgiving": 4507,
      "Ġstruggling": 4508,
      "au": 4509,
      "_{\\": 4510,
      "Ġclosely": 4511,
      "Ġdiscussion": 4512,
      "Ġcommand": 4513,
      "Step": 4514,
      "Ġhelping": 4515,
      "Ġship": 4516,
      "Ġintricate": 4517,
      "bon": 4518,
      "amples": 4519,
      "Ġvast": 4520,
      "Ġgames": 4521,
      "Ġidentifying": 4522,
      "nderstand": 4523,
      "Ġstation": 4524,
      "usion": 4525,
      "Ext": 4526,
      "Ġhom": 4527,
      "Ġhealthy": 4528,
      "64": 4529,
      "Ġopening": 4530,
      "ĠCol": 4531,
      "Ċĉĉ": 4532,
      "Ġfilter": 4533,
      "unning": 4534,
      "Ġpsych": 4535,
      "Ġ21": 4536,
      "Ġchecking": 4537,
      "lim": 4538,
      "ĠðŁ": 4539,
      "Ġdegree": 4540,
      "Ġpowers": 4541,
      "coming": 4542,
      "opt": 4543,
      "ĠNow": 4544,
      "usi": 4545,
      "Ġintelligence": 4546,
      "Ġbelow": 4547,
      "Ġtechnique": 4548,
      "Ġsituations": 4549,
      "Ġblog": 4550,
      "Ġep": 4551,
      "Ġplayers": 4552,
      "empty": 4553,
      "Ġwal": 4554,
      "Ġconstra": 4555,
      "Ġnut": 4556,
      "Ġbott": 4557,
      "Ġdiscovery": 4558,
      "Ġcam": 4559,
      "Ġnoting": 4560,
      "Ġarchitect": 4561,
      "ĠMan": 4562,
      "uzz": 4563,
      "Ġmillion": 4564,
      "ĠExample": 4565,
      "conds": 4566,
      "Ġefficiency": 4567,
      "Ġwomen": 4568,
      "Ġneighbor": 4569,
      "Ġdemonstrate": 4570,
      "Ġcommunicate": 4571,
      "Ġinterview": 4572,
      "ĠAfter": 4573,
      "ĠIdent": 4574,
      "Ġurban": 4575,
      "Ġeducational": 4576,
      "Ġvariety": 4577,
      "ĠReg": 4578,
      "eter": 4579,
      "ancing": 4580,
      "Ġmitig": 4581,
      "Ġutil": 4582,
      "rete": 4583,
      "Line": 4584,
      "Ġshop": 4585,
      "Ġpractical": 4586,
      "Ġreliable": 4587,
      "Ġ\")": 4588,
      "Hello": 4589,
      "Imagine": 4590,
      "Ġintu": 4591,
      "Ġpan": 4592,
      "Ġperhaps": 4593,
      "Ġadds": 4594,
      "Ġsoon": 4595,
      "holders": 4596,
      "ags": 4597,
      "eep": 4598,
      "Ġbiases": 4599,
      "Sim": 4600,
      "Ġenthusi": 4601,
      "Ġsatisfaction": 4602,
      "Ġrational": 4603,
      "ocol": 4604,
      "Ġexercise": 4605,
      "Alex": 4606,
      "Ġinside": 4607,
      "Ġuncertainty": 4608,
      "Ġlinked": 4609,
      "tra": 4610,
      "lock": 4611,
      "Ġoperator": 4612,
      "Ġspend": 4613,
      "Ġresidents": 4614,
      "Ġparents": 4615,
      "Ġfamous": 4616,
      "Ġengineering": 4617,
      "Ġdrawn": 4618,
      ")`": 4619,
      "\"}}}]</": 4620,
      "veys": 4621,
      "ĠCont": 4622,
      "irect": 4623,
      "Ġupdates": 4624,
      "board": 4625,
      "Ġaccuracy": 4626,
      "Ġtalk": 4627,
      "lete": 4628,
      "riangle": 4629,
      "Ġeasily": 4630,
      "Wh": 4631,
      "Ġscript": 4632,
      "Ġmount": 4633,
      "Ġnotice": 4634,
      "Ġvi": 4635,
      "But": 4636,
      "cer": 4637,
      "iner": 4638,
      "Ġintrig": 4639,
      "Ġinnovation": 4640,
      "ibly": 4641,
      "Ġstarts": 4642,
      "Ġcountries": 4643,
      "case": 4644,
      "fil": 4645,
      "na": 4646,
      "Ġfront": 4647,
      "structions": 4648,
      "Ġda": 4649,
      "Ġseek": 4650,
      "ĠSarah": 4651,
      "((": 4652,
      "Ġcast": 4653,
      "ĠYork": 4654,
      "Ġpain": 4655,
      "ractions": 4656,
      "osition": 4657,
      "change": 4658,
      "ria": 4659,
      "pare": 4660,
      "Ġmember": 4661,
      "oud": 4662,
      "ĠSet": 4663,
      "Ġready": 4664,
      "Sc": 4665,
      "Ġseemed": 4666,
      "ĠQu": 4667,
      "Invalid": 4668,
      "Ġtwist": 4669,
      "Ġsurpr": 4670,
      "Ġdefinition": 4671,
      "500": 4672,
      "CT": 4673,
      "Ġstruggles": 4674,
      "Ġsea": 4675,
      "using": 4676,
      "Ġsmallest": 4677,
      "Ġapplied": 4678,
      "Ġeffort": 4679,
      "iff": 4680,
      "Ġediting": 4681,
      "Ġholds": 4682,
      "Ġrect": 4683,
      "Ġdomain": 4684,
      "ĠEn": 4685,
      "Ġtopics": 4686,
      "item": 4687,
      "Ġequival": 4688,
      "Ġ@": 4689,
      "ught": 4690,
      "Ġcolleag": 4691,
      "iter": 4692,
      "used": 4693,
      "acity": 4694,
      "Ġcoin": 4695,
      "Ġmode": 4696,
      "Ġ!=": 4697,
      "ifact": 4698,
      "://": 4699,
      "Ġsays": 4700,
      "Ġfiles": 4701,
      "Ġparagraphs": 4702,
      "Ġgradu": 4703,
      "wh": 4704,
      "Ġphilos": 4705,
      "Ġhighlighting": 4706,
      "osen": 4707,
      "urt": 4708,
      "Ġimplementing": 4709,
      "ĠCar": 4710,
      "Ġpercentage": 4711,
      "Ġmob": 4712,
      "Ġresearchers": 4713,
      "gs": 4714,
      "Ġletters": 4715,
      "Ġprocessing": 4716,
      "Ġmaterial": 4717,
      "Ġgir": 4718,
      "diction": 4719,
      "neg": 4720,
      "Ġmanif": 4721,
      "Ġmanner": 4722,
      "Ġinj": 4723,
      "Ġdescription": 4724,
      "Ġ->": 4725,
      "Ġcausing": 4726,
      "flow": 4727,
      "Ġspecifically": 4728,
      "Ġrealm": 4729,
      "ivil": 4730,
      "ana": 4731,
      "ried": 4732,
      "acher": 4733,
      "Ġquite": 4734,
      "utive": 4735,
      "Ġpieces": 4736,
      "ĠFibonacci": 4737,
      "ĠComm": 4738,
      "Ġleaves": 4739,
      "pri": 4740,
      "mut": 4741,
      "ID": 4742,
      "ĠRem": 4743,
      "ĠHis": 4744,
      "ĠAvoid": 4745,
      "Ġdivisible": 4746,
      "ĠMany": 4747,
      "Ġnecessarily": 4748,
      "Ġcele": 4749,
      "urance": 4750,
      "ĠTe": 4751,
      "Ġvibrant": 4752,
      "uilding": 4753,
      "ocks": 4754,
      "Ġartists": 4755,
      "Ġdesire": 4756,
      "Ġprinciples": 4757,
      "ĠMark": 4758,
      "Ġheat": 4759,
      "Ġreceive": 4760,
      "Ġenable": 4761,
      "Ġprofession": 4762,
      "atter": 4763,
      "Ġdepend": 4764,
      "Ġexternal": 4765,
      "Ġconfident": 4766,
      "uing": 4767,
      "Ġsolid": 4768,
      "Ġdrawing": 4769,
      "Ġocean": 4770,
      "Ġsolving": 4771,
      "Ġpod": 4772,
      "otes": 4773,
      "Sh": 4774,
      "Ġkids": 4775,
      "abel": 4776,
      "Ġround": 4777,
      "Ġsustainability": 4778,
      "Ġrh": 4779,
      "ils": 4780,
      "}{\\": 4781,
      "ipped": 4782,
      "Ġconven": 4783,
      "ĠFr": 4784,
      "onom": 4785,
      "Ġexciting": 4786,
      "Create": 4787,
      "ided": 4788,
      "anges": 4789,
      "Ġillustrate": 4790,
      "\"}}]</": 4791,
      "Ġlayer": 4792,
      "Ġtrig": 4793,
      "Ġsett": 4794,
      "Ġsquares": 4795,
      "Ġreplace": 4796,
      "Ġdidn": 4797,
      "Ġwriter": 4798,
      "Ġswe": 4799,
      "Ġparallel": 4800,
      "orth": 4801,
      "elines": 4802,
      "Ġresponsibility": 4803,
      "Ġresil": 4804,
      "Ġcards": 4805,
      "Extract": 4806,
      "While": 4807,
      "df": 4808,
      "ĊĠĠĠĠĊĠĠĠ": 4809,
      "Ġleads": 4810,
      "ina": 4811,
      "Ġvisualization": 4812,
      "ometimes": 4813,
      "ĠTra": 4814,
      "Ġprompt": 4815,
      "Ġvision": 4816,
      "RE": 4817,
      "inks": 4818,
      "Ġexpenses": 4819,
      "Ġboard": 4820,
      "rem": 4821,
      "Ġfears": 4822,
      "ename": 4823,
      "Ġbank": 4824,
      "Ġmorning": 4825,
      "telling": 4826,
      "Ġaddressing": 4827,
      "70": 4828,
      "Ġexamine": 4829,
      "bre": 4830,
      "Example": 4831,
      "Ġpurchase": 4832,
      "fix": 4833,
      "lean": 4834,
      "urd": 4835,
      "Ġcreation": 4836,
      "Ġcreatures": 4837,
      "acies": 4838,
      "ested": 4839,
      "Ġobserved": 4840,
      "Ġcame": 4841,
      "Ġmother": 4842,
      "ĠDis": 4843,
      "Ġdisease": 4844,
      "Ġguests": 4845,
      "char": 4846,
      "Ġartifact": 4847,
      "Ġwit": 4848,
      "Ġhighest": 4849,
      "Ġsubstit": 4850,
      "Ġachieved": 4851,
      "Ġoccurs": 4852,
      "Ġwrong": 4853,
      "Ġclosed": 4854,
      "Ġstage": 4855,
      "orage": 4856,
      "Ġquart": 4857,
      "Ġpatients": 4858,
      "36": 4859,
      "ok": 4860,
      "Ġtens": 4861,
      "Ġprove": 4862,
      "55": 4863,
      "Ġbuy": 4864,
      "}+": 4865,
      "Ġspirit": 4866,
      "Ġmuseum": 4867,
      "geq": 4868,
      "Ġfilled": 4869,
      "Ġtriang": 4870,
      "indrome": 4871,
      "ĠNational": 4872,
      "pling": 4873,
      "Ġtrac": 4874,
      "ĠSub": 4875,
      "Ġdefault": 4876,
      "htt": 4877,
      "Ġhumans": 4878,
      "lambda": 4879,
      "reaching": 4880,
      "Ġsurrounding": 4881,
      "RO": 4882,
      "Ġacademic": 4883,
      "println": 4884,
      "ww": 4885,
      "Ġaccom": 4886,
      "Ġtransfer": 4887,
      "Ġprints": 4888,
      "Ġ36": 4889,
      "json": 4890,
      "Ġherself": 4891,
      "search": 4892,
      "Ġguess": 4893,
      "Ġspark": 4894,
      "Ġfr": 4895,
      "Ġmovement": 4896,
      "Ġevaluating": 4897,
      "Ġmyth": 4898,
      "Ġrewrite": 4899,
      "Ġpreserving": 4900,
      "Ġdelicate": 4901,
      "Ġimages": 4902,
      "Ġmission": 4903,
      "01": 4904,
      "Ġdiscount": 4905,
      "Ġcomfortable": 4906,
      "Ġreceived": 4907,
      "Ġkn": 4908,
      "ara": 4909,
      "ĠCalculate": 4910,
      "Ġusually": 4911,
      "force": 4912,
      "Ġfinite": 4913,
      "Ġvict": 4914,
      "olds": 4915,
      "root": 4916,
      "Ġdeal": 4917,
      "Ġ22": 4918,
      "Ġcontradict": 4919,
      "Ġcomponent": 4920,
      "Ġworked": 4921,
      "sl": 4922,
      "Ġ45": 4923,
      "Ġexperienced": 4924,
      "nal": 4925,
      "Ġthrow": 4926,
      "ĠSm": 4927,
      "Ġbeginning": 4928,
      "Ġshown": 4929,
      "Ġclient": 4930,
      "squ": 4931,
      "Ġforces": 4932,
      "Ġsensory": 4933,
      "room": 4934,
      "AB": 4935,
      "iations": 4936,
      "part": 4937,
      "78": 4938,
      "Ġplots": 4939,
      "going": 4940,
      "32": 4941,
      "Ġcurrently": 4942,
      "iced": 4943,
      "tical": 4944,
      "Ġfacilit": 4945,
      "Ġmoral": 4946,
      "level": 4947,
      "Ġformer": 4948,
      "Dear": 4949,
      "Ġdepends": 4950,
      "Also": 4951,
      "enance": 4952,
      "oted": 4953,
      "Ġassert": 4954,
      "Ġpicture": 4955,
      "Ġrecently": 4956,
      "pid": 4957,
      "Ġanimals": 4958,
      "ipping": 4959,
      "Ġsite": 4960,
      "Ġslightly": 4961,
      "Time": 4962,
      "spect": 4963,
      "Ġgas": 4964,
      "Ġesc": 4965,
      "table": 4966,
      "ĠParis": 4967,
      "structure": 4968,
      "Ġimmediately": 4969,
      "ĠWill": 4970,
      "Ġflexible": 4971,
      "Ġdegrees": 4972,
      "ĠĠĠĠĠ": 4973,
      "Ġbenefit": 4974,
      "Ġdecimal": 4975,
      "Ġgenerally": 4976,
      "Ġpriorities": 4977,
      "Ġstrange": 4978,
      "ought": 4979,
      "Ġdigit": 4980,
      "Ġhash": 4981,
      "Ġrom": 4982,
      "Ġviews": 4983,
      "Ġfully": 4984,
      "ĠBrit": 4985,
      "Ġparty": 4986,
      "des": 4987,
      "rand": 4988,
      "And": 4989,
      "Ġclassic": 4990,
      "map": 4991,
      "Ġgent": 4992,
      "Fetches": 4993,
      "Ġcorrectly": 4994,
      "house": 4995,
      "Ġteaching": 4996,
      "Ġfest": 4997,
      "Ġestabl": 4998,
      "ĠTest": 4999,
      "Ġwhite": 5000,
      "Ġmemor": 5001,
      "Ġasking": 5002,
      "ĠDevelop": 5003,
      "Ġunivers": 5004,
      "Ġcontinues": 5005,
      "Ġarc": 5006,
      "Ġign": 5007,
      "othing": 5008,
      ")]": 5009,
      "ament": 5010,
      "Ġonto": 5011,
      "top": 5012,
      "Ġcoordinates": 5013,
      "Ġcombined": 5014,
      "-\\": 5015,
      "ĠGoogle": 5016,
      "osite": 5017,
      "pers": 5018,
      "ĠThat": 5019,
      "ĠAll": 5020,
      "Ġwent": 5021,
      "ief": 5022,
      "Ġroles": 5023,
      "Ġmodul": 5024,
      "asure": 5025,
      "div": 5026,
      "Ġcompared": 5027,
      "Ġblood": 5028,
      "clusions": 5029,
      "ait": 5030,
      "Ġintersection": 5031,
      "rest": 5032,
      "iration": 5033,
      "Ġreaching": 5034,
      "Ġmessages": 5035,
      "Ġassume": 5036,
      "Ġresonates": 5037,
      "Ġsuggested": 5038,
      "Ġasked": 5039,
      "Ġinterpretation": 5040,
      "ĠFirst": 5041,
      "iling": 5042,
      "ĠStates": 5043,
      "ishing": 5044,
      "aus": 5045,
      "\\\\": 5046,
      "Ġabstract": 5047,
      "ĠCity": 5048,
      "ĠTw": 5049,
      "ĠDon": 5050,
      "Ġdesires": 5051,
      "ai": 5052,
      "Ġedit": 5053,
      "fit": 5054,
      "Ġrely": 5055,
      "Ġinfra": 5056,
      "Ġarri": 5057,
      "etch": 5058,
      "quality": 5059,
      "Ġalone": 5060,
      "avid": 5061,
      "'.\",": 5062,
      "group": 5063,
      "Ġinsert": 5064,
      "Ġpossess": 5065,
      "airs": 5066,
      "Ġtuple": 5067,
      "Ġvac": 5068,
      "Ġchosen": 5069,
      "Ġingred": 5070,
      "tes": 5071,
      "Ġdecor": 5072,
      "Ġfab": 5073,
      "Ġplaces": 5074,
      "Ġuns": 5075,
      "instance": 5076,
      "iors": 5077,
      "Ġice": 5078,
      "Ġload": 5079,
      "====": 5080,
      "Ġpremises": 5081,
      "adox": 5082,
      "Ġlate": 5083,
      "Ġmindful": 5084,
      "28": 5085,
      "Exception": 5086,
      "Ġelectric": 5087,
      "arer": 5088,
      "Ġessence": 5089,
      "Ġangles": 5090,
      "Ġpersonalized": 5091,
      "That": 5092,
      "\"},\"": 5093,
      "Pl": 5094,
      "Ġmedic": 5095,
      "iers": 5096,
      "align": 5097,
      "Ġstorytelling": 5098,
      "Ġpolice": 5099,
      "Ġmil": 5100,
      "Ġrele": 5101,
      "Ġopin": 5102,
      "ech": 5103,
      "Ġhosp": 5104,
      "cons": 5105,
      "Ġ=>": 5106,
      "water": 5107,
      "}(": 5108,
      "Ġrise": 5109,
      "Ġsaw": 5110,
      "Ġfilm": 5111,
      "._": 5112,
      "driven": 5113,
      "eria": 5114,
      "ĠFind": 5115,
      "current": 5116,
      "Thus": 5117,
      "Ġrespectively": 5118,
      "AC": 5119,
      "Ġintegration": 5120,
      "Ġfantasy": 5121,
      "Ġcomparis": 5122,
      "SON": 5123,
      "related": 5124,
      "Ġincorrect": 5125,
      "dig": 5126,
      "Ġinstructions": 5127,
      "Ġpassage": 5128,
      "Ġconclusions": 5129,
      "Ġpun": 5130,
      "duc": 5131,
      "valu": 5132,
      "ĠOur": 5133,
      "Ġsave": 5134,
      "Ġtheme": 5135,
      "ĠList": 5136,
      "ley": 5137,
      "Ġintroduction": 5138,
      "Ġbrief": 5139,
      "Ġartist": 5140,
      "Ġ23": 5141,
      "ipp": 5142,
      "rm": 5143,
      "Ġbrain": 5144,
      "Ġfa": 5145,
      "Ġsufficient": 5146,
      "ĠNo": 5147,
      "Ġpodcast": 5148,
      "ifications": 5149,
      "ĠType": 5150,
      "Ġstop": 5151,
      "ĠChr": 5152,
      "points": 5153,
      "otic": 5154,
      "Ġresponsibilities": 5155,
      "Ġprepare": 5156,
      "ĠAm": 5157,
      "Ġshif": 5158,
      "Ġstronger": 5159,
      "ĠEl": 5160,
      "hetic": 5161,
      "nes": 5162,
      "wed": 5163,
      "pop": 5164,
      "Ġclaims": 5165,
      "Thank": 5166,
      "sorted": 5167,
      "\"]}}}]</": 5168,
      "Ġaccounts": 5169,
      "Ġneighborhood": 5170,
      "Ġprepar": 5171,
      "ĠÃĹ": 5172,
      "Ġcohes": 5173,
      "Ġsymmetry": 5174,
      "Ġinternal": 5175,
      "Ġoffice": 5176,
      "Ġdetermined": 5177,
      "Ġtrade": 5178,
      "Ġregions": 5179,
      "Ġstake": 5180,
      "Ġwants": 5181,
      "iam": 5182,
      "Ġwidth": 5183,
      "Ġcrow": 5184,
      "Ġcategories": 5185,
      "sm": 5186,
      "Ġdynamics": 5187,
      "Ġcong": 5188,
      "Ġbullet": 5189,
      "Ġcoming": 5190,
      "Ġweigh": 5191,
      "ificial": 5192,
      "Ġplays": 5193,
      "rays": 5194,
      "Ġinfinity": 5195,
      "ufact": 5196,
      "ball": 5197,
      "cor": 5198,
      "Ġcategory": 5199,
      "Ġbroader": 5200,
      "Ġfru": 5201,
      "Ġdriven": 5202,
      "Ġmut": 5203,
      "Ġhabit": 5204,
      "Ġeffectiveness": 5205,
      "Ġpick": 5206,
      "Ġresponsible": 5207,
      "Ġreput": 5208,
      "Ġreasons": 5209,
      "arp": 5210,
      "ĠCo": 5211,
      "aster": 5212,
      "Value": 5213,
      "Ġinfrastructure": 5214,
      "ender": 5215,
      "Ġrecommendations": 5216,
      "Ġexpressions": 5217,
      "ĠFl": 5218,
      "axis": 5219,
      "ups": 5220,
      "Ġadult": 5221,
      "Ġcauses": 5222,
      "Ġ35": 5223,
      "ustomer": 5224,
      "Ġstudying": 5225,
      "Ġcommitment": 5226,
      "Ġforced": 5227,
      "Ġhimself": 5228,
      "uries": 5229,
      "27": 5230,
      "Ġengaged": 5231,
      "Ġpartnership": 5232,
      "Ġscale": 5233,
      "Ġmenu": 5234,
      "Ġintersect": 5235,
      "Ġrecip": 5236,
      "Ġwhose": 5237,
      "Ġpresented": 5238,
      "Ġ1000": 5239,
      "Ġhous": 5240,
      "Ġfreed": 5241,
      "Ġlisten": 5242,
      "Ġsigns": 5243,
      "Ġahead": 5244,
      "clide": 5245,
      "ĠAdd": 5246,
      "Ġvectors": 5247,
      "ocal": 5248,
      "Reg": 5249,
      "From": 5250,
      "Ġaltern": 5251,
      ")}": 5252,
      "ĠGe": 5253,
      "Ġpolicies": 5254,
      "Ġdraft": 5255,
      "Ġpeace": 5256,
      "icial": 5257,
      "uesday": 5258,
      "Ġminor": 5259,
      "Ġmovie": 5260,
      "Ġsynt": 5261,
      "ographic": 5262,
      "Ġprofit": 5263,
      "Ġnearby": 5264,
      "Ġ75": 5265,
      "Ġstorage": 5266,
      "Ġinhabit": 5267,
      "clidean": 5268,
      "linear": 5269,
      ")\\": 5270,
      "Ġfather": 5271,
      "Ġ70": 5272,
      "Ġapplying": 5273,
      "Ġmodified": 5274,
      "Ġ($": 5275,
      "Ġpromoting": 5276,
      "Ġvivid": 5277,
      "Ġinfluenced": 5278,
      "Calcul": 5279,
      "ounds": 5280,
      "Type": 5281,
      "Ġdiscussing": 5282,
      "Ġfulf": 5283,
      "Ġalloc": 5284,
      "Ġdenom": 5285,
      "ung": 5286,
      "Ġpoll": 5287,
      "Ġdetective": 5288,
      "inner": 5289,
      "Ġstock": 5290,
      "Ġrows": 5291,
      "Ġdifferential": 5292,
      "Ġearth": 5293,
      "address": 5294,
      "bes": 5295,
      "theta": 5296,
      "Ġrenew": 5297,
      "pace": 5298,
      "Ġ28": 5299,
      "Ġempath": 5300,
      "Ġeigen": 5301,
      "Ġshowcase": 5302,
      "trans": 5303,
      "vest": 5304,
      "Ġensures": 5305,
      "Ġsaying": 5306,
      "Ġchem": 5307,
      "Ġscenarios": 5308,
      "Ġadventure": 5309,
      "Ġthreads": 5310,
      "Ġ32": 5311,
      "Ġcivil": 5312,
      "Ġmitigate": 5313,
      "cout": 5314,
      "wood": 5315,
      "written": 5316,
      "instorm": 5317,
      "Ġverb": 5318,
      "Ġadjustments": 5319,
      "Ġclust": 5320,
      "Ġcultures": 5321,
      "ĠFinally": 5322,
      "Ġclimbs": 5323,
      "Ġqual": 5324,
      "vable": 5325,
      "Ġprop": 5326,
      "Ġincreasingly": 5327,
      "Ġgentle": 5328,
      "ĠTrans": 5329,
      "ED": 5330,
      "Â²": 5331,
      "ormal": 5332,
      "Ġclearly": 5333,
      "Ġallowed": 5334,
      "mathbb": 5335,
      "Ġrent": 5336,
      "rad": 5337,
      "Ġwalls": 5338,
      "Ġsav": 5339,
      "Ġfamiliar": 5340,
      "rier": 5341,
      "Ġjud": 5342,
      "amount": 5343,
      "range": 5344,
      "Ġmemorable": 5345,
      "Ġdependent": 5346,
      "`:": 5347,
      "Ġconservation": 5348,
      "abits": 5349,
      "Ġvehicle": 5350,
      "ml": 5351,
      "Ġwealth": 5352,
      "Ġpursu": 5353,
      "Ġrevealing": 5354,
      "pow": 5355,
      "Ġgall": 5356,
      "racing": 5357,
      "][": 5358,
      "rench": 5359,
      "Ġreturned": 5360,
      "Ġcolleagues": 5361,
      "Ġdoll": 5362,
      "though": 5363,
      "Ġstorm": 5364,
      "True": 5365,
      "Ġraises": 5366,
      "Ġcombinations": 5367,
      "ingu": 5368,
      "Ġcombining": 5369,
      "Ġcrew": 5370,
      "Ġjoy": 5371,
      "Ġexclusive": 5372,
      "ĠWest": 5373,
      "Ġknew": 5374,
      "forward": 5375,
      "bl": 5376,
      "Ġfavorite": 5377,
      "eries": 5378,
      "Ġoutline": 5379,
      "Ġposts": 5380,
      "ĠEmma": 5381,
      "ĠStart": 5382,
      "ql": 5383,
      "rec": 5384,
      "Ġkit": 5385,
      "Ġrealistic": 5386,
      "args": 5387,
      "Ġgrav": 5388,
      "Ġreduced": 5389,
      "ev": 5390,
      "gence": 5391,
      "Ġwat": 5392,
      "Ġhotel": 5393,
      "raid": 5394,
      "essage": 5395,
      "Ġshowing": 5396,
      "Ġworkshops": 5397,
      "Ġdamage": 5398,
      "^(-": 5399,
      "Ġweaknesses": 5400,
      "Ġpubl": 5401,
      "ĠPar": 5402,
      "redict": 5403,
      "Ġrhyth": 5404,
      "}}]</": 5405,
      "Ġafford": 5406,
      "Ġnarrow": 5407,
      "Se": 5408,
      "Ġmicro": 5409,
      "mathbf": 5410,
      "Ġrecognize": 5411,
      "oad": 5412,
      "Ġdedicated": 5413,
      "Ġcarbon": 5414,
      "];": 5415,
      "Ġlearned": 5416,
      "Ġperp": 5417,
      "Ġoutdoor": 5418,
      "position": 5419,
      "CD": 5420,
      "url": 5421,
      "cel": 5422,
      "Ġsell": 5423,
      "Ġhop": 5424,
      "Ġtransformations": 5425,
      "Ġobservations": 5426,
      "Ġburn": 5427,
      "Ġongoing": 5428,
      "Ġexhibit": 5429,
      "Ġeager": 5430,
      "Ġinitially": 5431,
      "ĠStud": 5432,
      ",'": 5433,
      "Ġdatasets": 5434,
      "etermine": 5435,
      "Ind": 5436,
      "Yes": 5437,
      "Ġdelve": 5438,
      ".)": 5439,
      "Ġlengths": 5440,
      "Ġexponential": 5441,
      "Ġfollowed": 5442,
      "Ġconstruction": 5443,
      "Ġafraid": 5444,
      "ĠVis": 5445,
      "ĠString": 5446,
      "Ġattribute": 5447,
      "Ġsummer": 5448,
      "Ġplaying": 5449,
      "ĠThom": 5450,
      "Ġcollaborate": 5451,
      "iny": 5452,
      "Ġlanguages": 5453,
      "Ġic": 5454,
      "Ġretrieve": 5455,
      "Ġansw": 5456,
      "Ġfabric": 5457,
      "None": 5458,
      "Ġfiction": 5459,
      "Ġmanufact": 5460,
      "ognitive": 5461,
      "Ġcm": 5462,
      "ughter": 5463,
      "Ġcapital": 5464,
      "Ġacqu": 5465,
      "Des": 5466,
      "YY": 5467,
      "Ġpuzz": 5468,
      "ĠPol": 5469,
      "backs": 5470,
      "oves": 5471,
      "Ġfriendly": 5472,
      "ague": 5473,
      "Ġimpactful": 5474,
      "ĠChanged": 5475,
      "Ġsensitive": 5476,
      "Ġcouple": 5477,
      "Ġmyself": 5478,
      "Ġapart": 5479,
      "ĠÏĢ": 5480,
      "Do": 5481,
      "ĠAp": 5482,
      "Ġ{}": 5483,
      "Ġbrainstorm": 5484,
      "ira": 5485,
      "Ġexcite": 5486,
      "Of": 5487,
      "Ġrecy": 5488,
      "ores": 5489,
      "ĠNot": 5490,
      "Ġmaintenance": 5491,
      "([": 5492,
      "Ġ27": 5493,
      "Ġspot": 5494,
      "Ġdescribed": 5495,
      "Ġseconds": 5496,
      "Ġremoved": 5497,
      "ĠRep": 5498,
      "Ġ\\(\\": 5499,
      "gments": 5500,
      "strings": 5501,
      "ĠSpec": 5502,
      "After": 5503,
      "Start": 5504,
      "ĠThus": 5505,
      "Ġsou": 5506,
      "Ġmodular": 5507,
      "Ġcompletely": 5508,
      "stances": 5509,
      "Ġnp": 5510,
      "Ġrare": 5511,
      "iosity": 5512,
      "}=": 5513,
      "Ġdiet": 5514,
      "Ġcycle": 5515,
      "Ph": 5516,
      "Ġsegment": 5517,
      "Ġperforming": 5518,
      "ridge": 5519,
      "Ġdespite": 5520,
      "Ġdiscovered": 5521,
      "Implement": 5522,
      "Ġwaiting": 5523,
      "Ġrough": 5524,
      "123": 5525,
      "Ġdestination": 5526,
      "Ġquiet": 5527,
      "cessary": 5528,
      "Ġconversations": 5529,
      "Ġvertices": 5530,
      "peration": 5531,
      "lower": 5532,
      "Ġcool": 5533,
      "Ġmonit": 5534,
      "phic": 5535,
      "Ġsections": 5536,
      "Ġsurvey": 5537,
      "Ġcapacity": 5538,
      "ĠMod": 5539,
      "Ġskin": 5540,
      "Ġinvestigation": 5541,
      "Ġarchitecture": 5542,
      "Ġhabits": 5543,
      "Ġfallacy": 5544,
      "US": 5545,
      "Ġphilosoph": 5546,
      "DE": 5547,
      "Ġroutine": 5548,
      "Ġwithdraw": 5549,
      "triangle": 5550,
      "Ġcalculation": 5551,
      "Ġpassed": 5552,
      "Ġurg": 5553,
      "Ġrapid": 5554,
      "host": 5555,
      "ueue": 5556,
      "Ġclues": 5557,
      "ĠTuesday": 5558,
      "Ġtraits": 5559,
      "Ġmultiply": 5560,
      "Ġhint": 5561,
      "igu": 5562,
      "Per": 5563,
      "cending": 5564,
      "Ġdx": 5565,
      "Ġconclude": 5566,
      "Ġenvironments": 5567,
      "RL": 5568,
      "Ġdecide": 5569,
      "Ġattractions": 5570,
      "password": 5571,
      "code": 5572,
      "Ġtraum": 5573,
      "Ġintegrate": 5574,
      "));": 5575,
      "Or": 5576,
      ")$,": 5577,
      "ĠMichael": 5578,
      "ĠAlso": 5579,
      "Ġviol": 5580,
      "check": 5581,
      "ĠWould": 5582,
      "ĠFe": 5583,
      "Ġfight": 5584,
      "Ġfraction": 5585,
      "active": 5586,
      "Ġsoil": 5587,
      "Set": 5588,
      "Ġdividing": 5589,
      "Ġcook": 5590,
      "Ġdeeply": 5591,
      "Ġhero": 5592,
      "Ġ--": 5593,
      "Ġ['": 5594,
      "ilarly": 5595,
      "Ġdoub": 5596,
      "pan": 5597,
      "ĠHigh": 5598,
      "ĠDep": 5599,
      "negative": 5600,
      "Ġtriangles": 5601,
      "Un": 5602,
      "Ġadopt": 5603,
      "Ġannual": 5604,
      "Ġintended": 5605,
      "Not": 5606,
      "Ġoverl": 5607,
      "label": 5608,
      "ĠResearch": 5609,
      "ĠJSON": 5610,
      "Ġequivalent": 5611,
      "Ġfreedom": 5612,
      "ands": 5613,
      "Â°": 5614,
      "Ġ\"\"},": 5615,
      "rence": 5616,
      "Ġserves": 5617,
      "Ġbelong": 5618,
      "Ġstability": 5619,
      "Ġaligns": 5620,
      "roduct": 5621,
      "Ġintervals": 5622,
      "Ġmeets": 5623,
      "tics": 5624,
      "Ġavailability": 5625,
      "kyo": 5626,
      "Ġolder": 5627,
      "Ġprofessionals": 5628,
      "Ġbecame": 5629,
      "Ġfinally": 5630,
      "ĠTake": 5631,
      "ĠThink": 5632,
      "pm": 5633,
      "ĠUser": 5634,
      "Ġcuriosity": 5635,
      "Ġorigin": 5636,
      "Ġ{'": 5637,
      "ĠFrom": 5638,
      "Ġawareness": 5639,
      "Ġreviews": 5640,
      "Ġconstraints": 5641,
      "Ġdepartment": 5642,
      "Ġdivision": 5643,
      "ously": 5644,
      "Input": 5645,
      "ĠOther": 5646,
      "Ġstreets": 5647,
      "Ġcloser": 5648,
      "ĠPart": 5649,
      "ĠBen": 5650,
      "Ġkeeping": 5651,
      "Ġacknowled": 5652,
      "Script": 5653,
      "gener": 5654,
      "Ġheard": 5655,
      "Total": 5656,
      "\\),": 5657,
      "ĠBank": 5658,
      "Ġexpansion": 5659,
      "Ġjoin": 5660,
      "Ġslope": 5661,
      "Ġrepeated": 5662,
      "Ġcelebr": 5663,
      "alysis": 5664,
      "Ġexcitement": 5665,
      "Ġple": 5666,
      "ĠNumber": 5667,
      "ĠCount": 5668,
      "Ġvisualize": 5669,
      "prime": 5670,
      "Ġsupporting": 5671,
      "LL": 5672,
      "Ġeconomy": 5673,
      "vere": 5674,
      "ccording": 5675,
      "gram": 5676,
      "Looking": 5677,
      "ĠAf": 5678,
      "Ġclearer": 5679,
      "Ġchain": 5680,
      "omor": 5681,
      "que": 5682,
      "Ġassistance": 5683,
      "anch": 5684,
      "ellow": 5685,
      "ades": 5686,
      "sv": 5687,
      "Ġimprovements": 5688,
      "Ġflaws": 5689,
      ":\",": 5690,
      "Ġimproving": 5691,
      "Ġwindow": 5692,
      "Ġcandid": 5693,
      "Ġreminder": 5694,
      "Ġhonest": 5695,
      "Ġfamilies": 5696,
      "mb": 5697,
      "ĠMed": 5698,
      "necessary": 5699,
      "Ġcomprehension": 5700,
      "Ġquantum": 5701,
      "mission": 5702,
      "Ġfill": 5703,
      "Ġcollege": 5704,
      "\">": 5705,
      "Ġscreen": 5706,
      "fig": 5707,
      "Ġhowever": 5708,
      "Qu": 5709,
      "overs": 5710,
      "Ġmistakes": 5711,
      "ync": 5712,
      "rate": 5713,
      "Ġstraightforward": 5714,
      "Ġingredients": 5715,
      "Ġtwice": 5716,
      "Ġcolumns": 5717,
      "Ġcarry": 5718,
      "Ġlaws": 5719,
      "Class": 5720,
      "35": 5721,
      "ployee": 5722,
      "Ġparticipants": 5723,
      "Ġfuel": 5724,
      "Ġsty": 5725,
      "Ġitiner": 5726,
      "Ġgets": 5727,
      "Ġpul": 5728,
      "Ġexchange": 5729,
      "ĠSQL": 5730,
      "Ġballs": 5731,
      "Ġhumanity": 5732,
      "Ġbeneficial": 5733,
      "foot": 5734,
      "this": 5735,
      "Ġtherap": 5736,
      "plifying": 5737,
      "split": 5738,
      "AN": 5739,
      "atur": 5740,
      "Ġovercome": 5741,
      "Ġexperts": 5742,
      "Ġcompl": 5743,
      "\";": 5744,
      "Ġtopology": 5745,
      "Ġscal": 5746,
      "ĠConsole": 5747,
      "Ġencounter": 5748,
      "Ġconfig": 5749,
      "Ġcaptiv": 5750,
      "oreover": 5751,
      "Ġchannels": 5752,
      "Ġgoes": 5753,
      "ĠAss": 5754,
      "pir": 5755,
      "orough": 5756,
      "ĠPark": 5757,
      "Ġcomplement": 5758,
      "Ġselection": 5759,
      "Ġfloor": 5760,
      "Ġsatisfy": 5761,
      "Ġcater": 5762,
      "Ġlik": 5763,
      "Ġstreet": 5764,
      "dep": 5765,
      "Ġdenoted": 5766,
      "Ġestablished": 5767,
      "ĠChar": 5768,
      "eli": 5769,
      "Ġtimeline": 5770,
      "Ġaccordingly": 5771,
      "ĠIdentify": 5772,
      "At": 5773,
      "hors": 5774,
      "Ġmort": 5775,
      "ective": 5776,
      "Ġlooks": 5777,
      "Ġcompact": 5778,
      "Ġ26": 5779,
      "Ġmel": 5780,
      "Ġ(`": 5781,
      "lst": 5782,
      "âĪļ": 5783,
      "Ġwatching": 5784,
      "title": 5785,
      "Ġsignal": 5786,
      "Ġinputs": 5787,
      "48": 5788,
      "Ġalt": 5789,
      "Ġmeal": 5790,
      "Ġdealing": 5791,
      "rs": 5792,
      "Ġotherwise": 5793,
      "Ġexceptions": 5794,
      "parent": 5795,
      "random": 5796,
      "Ġformed": 5797,
      "Ġcir": 5798,
      "Ġrain": 5799,
      "Ġisn": 5800,
      "Ġunnecessary": 5801,
      "Pr": 5802,
      "mid": 5803,
      "IS": 5804,
      "Ġvideos": 5805,
      "unt": 5806,
      "efore": 5807,
      "\\).": 5808,
      "vis": 5809,
      "ĠFrench": 5810,
      "Ġresponses": 5811,
      "Ġbalanced": 5812,
      "cre": 5813,
      "Ġclub": 5814,
      "Ġflu": 5815,
      "Hey": 5816,
      "estion": 5817,
      "Ġremoving": 5818,
      "Ġvertex": 5819,
      "ulating": 5820,
      "connected": 5821,
      "powered": 5822,
      "Ġcontinued": 5823,
      "Ġreb": 5824,
      "Ġloved": 5825,
      "Ġturned": 5826,
      "Ġobjectives": 5827,
      "Ġfaced": 5828,
      "Ġmobile": 5829,
      "Ġvisiting": 5830,
      "Ġfaces": 5831,
      "Ġreplaced": 5832,
      "ET": 5833,
      "while": 5834,
      "Ġ95": 5835,
      "Ġinitiatives": 5836,
      "ners": 5837,
      "ĠApp": 5838,
      "ĠTheir": 5839,
      "Ġdistributed": 5840,
      "Ġmaster": 5841,
      "Ġnums": 5842,
      "Ġbirth": 5843,
      "Ġstores": 5844,
      "Ġmodulo": 5845,
      "Ġcit": 5846,
      "Ġbottom": 5847,
      "Ġbed": 5848,
      "ĠRec": 5849,
      "cpp": 5850,
      "Ġell": 5851,
      "ĠMe": 5852,
      "var": 5853,
      "Ġsqrt": 5854,
      "Ġideal": 5855,
      "Ġbecoming": 5856,
      "Ġcrypt": 5857,
      "Ġjo": 5858,
      "ML": 5859,
      "\\_": 5860,
      "ogram": 5861,
      "ervice": 5862,
      "Ġmarg": 5863,
      "Ġstars": 5864,
      "ĠRed": 5865,
      "Ġdictionaries": 5866,
      "Ġwel": 5867,
      "ĠEns": 5868,
      "Ġadvert": 5869,
      "Ġserver": 5870,
      "ĠĠĠĠĠĠ": 5871,
      "ĠÂ£": 5872,
      "Ġmanageable": 5873,
      "Ġcollective": 5874,
      "Ġitinerary": 5875,
      "leg": 5876,
      "Ġâī¤": 5877,
      "Ġexplicitly": 5878,
      "icks": 5879,
      "antic": 5880,
      "ĠTokyo": 5881,
      "Ġbias": 5882,
      "chron": 5883,
      "ĠEcho": 5884,
      "join": 5885,
      "Ġparadox": 5886,
      "Ġflexibility": 5887,
      "olved": 5888,
      "zy": 5889,
      "orrow": 5890,
      "Ġ500": 5891,
      "aper": 5892,
      "che": 5893,
      "Ġantic": 5894,
      "Ġcells": 5895,
      "Ġtur": 5896,
      "eted": 5897,
      "Ġnothing": 5898,
      "Ġcalculating": 5899,
      "ĠAlternatively": 5900,
      "Ġlimits": 5901,
      "Ġsubse": 5902,
      "Ġremote": 5903,
      "front": 5904,
      "ampling": 5905,
      "unk": 5906,
      "Ġconsc": 5907,
      "ae": 5908,
      "Ġstunning": 5909,
      "icians": 5910,
      "Ġaftern": 5911,
      "Ġlie": 5912,
      "Ġproductivity": 5913,
      "Ġgrant": 5914,
      "Ġshaped": 5915,
      "Ġwidely": 5916,
      "anking": 5917,
      "arant": 5918,
      "Ġglass": 5919,
      "consist": 5920,
      "]]": 5921,
      "Ġveget": 5922,
      "ĠRom": 5923,
      "Ġgenerated": 5924,
      "Ġcognitive": 5925,
      "Ġartificial": 5926,
      "à¸": 5927,
      "Ġattack": 5928,
      "Ġclients": 5929,
      "Ġminim": 5930,
      "Ġpaths": 5931,
      "Ġconsumption": 5932,
      "Ġunus": 5933,
      "Ġsubset": 5934,
      "Comm": 5935,
      "Ġ120": 5936,
      "ĠOver": 5937,
      "Ġrelease": 5938,
      "OR": 5939,
      "Ġrig": 5940,
      "Ġfem": 5941,
      "Add": 5942,
      "Ġbad": 5943,
      "ĠCor": 5944,
      "Ġfoster": 5945,
      "kay": 5946,
      "unte": 5947,
      "Ġshapes": 5948,
      "dat": 5949,
      "Ġempathy": 5950,
      "Ġeco": 5951,
      "^{\\": 5952,
      "asm": 5953,
      "Ġinstr": 5954,
      "ĠReturns": 5955,
      "Ġrating": 5956,
      "Ġâī¡": 5957,
      "la": 5958,
      "Ġ\\):": 5959,
      "Ġglow": 5960,
      "Ġteams": 5961,
      "Ġfunding": 5962,
      "Are": 5963,
      "Ġdensity": 5964,
      "Ġlock": 5965,
      "ĠEd": 5966,
      "Ġanticip": 5967,
      "Ġago": 5968,
      "Ġwis": 5969,
      "Ġconsistency": 5970,
      "No": 5971,
      "porary": 5972,
      "nderstanding": 5973,
      "press": 5974,
      "person": 5975,
      "Ġvalidation": 5976,
      "Ġestablishing": 5977,
      "no": 5978,
      "Ġmeters": 5979,
      "Ġprinciple": 5980,
      "Ġdivers": 5981,
      "phis": 5982,
      "roid": 5983,
      "Ġproposal": 5984,
      "ĠSoc": 5985,
      "target": 5986,
      "ams": 5987,
      "Ġleader": 5988,
      "96": 5989,
      "Ġparticipate": 5990,
      "Ġconveys": 5991,
      "stat": 5992,
      "Ġnodes": 5993,
      "Ġlink": 5994,
      "Ġefficiently": 5995,
      "Ġcentury": 5996,
      "Ġadvantage": 5997,
      "Ġguidelines": 5998,
      "Ġdenominator": 5999,
      "Ġdiagon": 6000,
      "Ġserious": 6001,
      "Once": 6002,
      "Ġrestaurants": 6003,
      "uine": 6004,
      "Ġduplicate": 6005,
      "Ġsong": 6006,
      "Ġconj": 6007,
      "Ġexcell": 6008,
      "Ġfaster": 6009,
      "ĠCent": 6010,
      "Ġinterface": 6011,
      "celer": 6012,
      "Ġmetric": 6013,
      "umn": 6014,
      "Ġcareful": 6015,
      "except": 6016,
      "Ġmonitor": 6017,
      "Ġindustries": 6018,
      "xy": 6019,
      "izz": 6020,
      "NT": 6021,
      "Ġintroducing": 6022,
      "abol": 6023,
      "agers": 6024,
      "rought": 6025,
      "Ġupper": 6026,
      "Ġconsult": 6027,
      "Ġgirl": 6028,
      "choice": 6029,
      "Ġsphere": 6030,
      "iant": 6031,
      "long": 6032,
      "Day": 6033,
      "rices": 6034,
      "Ġrestr": 6035,
      "Ġmanaging": 6036,
      "Ġreverse": 6037,
      "Ġinvolving": 6038,
      "Ġvariability": 6039,
      "Ġspending": 6040,
      "Ġstakeholders": 6041,
      "Ġiterate": 6042,
      "Ġtracking": 6043,
      "Ġpreviously": 6044,
      "Ġvehicles": 6045,
      "Ġrewritten": 6046,
      "Ġevolve": 6047,
      "Ġdirectory": 6048,
      "Ġwait": 6049,
      "faces": 6050,
      "Ġaffected": 6051,
      "ffer": 6052,
      "Ġhistor": 6053,
      "95": 6054,
      "Ġforecast": 6055,
      "acking": 6056,
      "Ġresilience": 6057,
      "solving": 6058,
      "Ġsem": 6059,
      "era": 6060,
      "Ġfunctional": 6061,
      "Ġanimal": 6062,
      "pen": 6063,
      "Ġassumption": 6064,
      "ĠChrist": 6065,
      ")$.": 6066,
      "Ġcircumstances": 6067,
      "Ġgolden": 6068,
      "Ġmotion": 6069,
      "Through": 6070,
      "Ġintuitive": 6071,
      "Ġdim": 6072,
      "utor": 6073,
      "Ġrequests": 6074,
      "wness": 6075,
      "Ġcritic": 6076,
      "ossible": 6077,
      "Ġupcoming": 6078,
      "ĠDavid": 6079,
      "Ġconscious": 6080,
      "Ġinverse": 6081,
      "Ġrefers": 6082,
      "Ġsettings": 6083,
      "example": 6084,
      "Ġvictim": 6085,
      "Ġreflection": 6086,
      "ĠTime": 6087,
      "Explain": 6088,
      "ondon": 6089,
      "ES": 6090,
      "Âł": 6091,
      "ãĥ": 6092,
      "Ġgenerating": 6093,
      "Ġblur": 6094,
      "ourses": 6095,
      "Ġclar": 6096,
      "Ġsched": 6097,
      "Ġsky": 6098,
      "ĠJapanese": 6099,
      "Ġbin": 6100,
      "ulated": 6101,
      "Ġrephrased": 6102,
      "26": 6103,
      "Ġscan": 6104,
      "Ġdeposit": 6105,
      "Ġhyd": 6106,
      "Ġthorough": 6107,
      "format": 6108,
      "ounding": 6109,
      "Ġcollaborating": 6110,
      "Ġwra": 6111,
      "ĠHT": 6112,
      "Ġsatisfies": 6113,
      "Ġoverwhelming": 6114,
      "Ġrectangle": 6115,
      "rict": 6116,
      "ĠMar": 6117,
      "Ġimplemented": 6118,
      "CA": 6119,
      "arithm": 6120,
      "Ġ\\\"": 6121,
      "Ġfacing": 6122,
      "Ġtendency": 6123,
      "Ġcalculus": 6124,
      "Ġaccompl": 6125,
      "eral": 6126,
      "rical": 6127,
      "Ġalmost": 6128,
      "Ġmatches": 6129,
      "uler": 6130,
      "ĠBar": 6131,
      "Ġscent": 6132,
      "Ġsimplifies": 6133,
      "Ġprecision": 6134,
      "Ġtemp": 6135,
      "jav": 6136,
      "Ġchoosing": 6137,
      "upp": 6138,
      "Ġwife": 6139,
      "Ġgreatest": 6140,
      "She": 6141,
      "Ġraised": 6142,
      "Ġinspiration": 6143,
      "Ġwalking": 6144,
      "+\\": 6145,
      "Ġsuccessfully": 6146,
      "Ġfallacies": 6147,
      "ĠSouth": 6148,
      "ancy": 6149,
      "Ġeth": 6150,
      "Ġrelies": 6151,
      "minist": 6152,
      "Ġconfirm": 6153,
      "product": 6154,
      "ashion": 6155,
      "Ġsessions": 6156,
      "Ġecho": 6157,
      "Ġinsurance": 6158,
      "Ġstaying": 6159,
      "Ġcrafting": 6160,
      "Ġdarkness": 6161,
      "Ġgenuine": 6162,
      "Ġpackage": 6163,
      "iance": 6164,
      "Ġdow": 6165,
      "Ġstumb": 6166,
      "Ġinches": 6167,
      "Ġrecords": 6168,
      "Ġcomparing": 6169,
      "frame": 6170,
      "Ġsometimes": 6171,
      "Out": 6172,
      "fe": 6173,
      "mber": 6174,
      "$:": 6175,
      "Ġstudied": 6176,
      "Ġconfir": 6177,
      "Ġcomparison": 6178,
      "/(": 6179,
      "85": 6180,
      "Ġblend": 6181,
      "Ġpermut": 6182,
      "Ġcohesive": 6183,
      "Ġelimin": 6184,
      "Ġmir": 6185,
      "Ġentertain": 6186,
      "ilia": 6187,
      "plete": 6188,
      "Ġloyalty": 6189,
      "Ġtopological": 6190,
      "ama": 6191,
      "Ġsociet": 6192,
      "Ġbehaviors": 6193,
      "ĠGu": 6194,
      "ĠUniversity": 6195,
      "};": 6196,
      "Ġinvested": 6197,
      "Ġsearching": 6198,
      "ĠCal": 6199,
      "Ġphase": 6200,
      "++)": 6201,
      "Ġking": 6202,
      "ricult": 6203,
      "Ġpet": 6204,
      "Ġinstit": 6205,
      "ressive": 6206,
      "asive": 6207,
      "Ġcoast": 6208,
      "reshold": 6209,
      "Ġfrustr": 6210,
      "stab": 6211,
      "Ġcorresponds": 6212,
      "andon": 6213,
      "Ġlocated": 6214,
      "Ġschools": 6215,
      "ĠEuclidean": 6216,
      "Ġafternoon": 6217,
      "organ": 6218,
      "Ġcompute": 6219,
      "Ġdeviations": 6220,
      "oe": 6221,
      "opy": 6222,
      "stituting": 6223,
      "vector": 6224,
      "ĠâĪ«": 6225,
      "Ġcombine": 6226,
      "Ġcompetition": 6227,
      "Ġmanipulate": 6228,
      ")**:": 6229,
      "Ġpersu": 6230,
      "poses": 6231,
      "Ġreward": 6232,
      "Ġscope": 6233,
      "Ġcrime": 6234,
      "Ġstable": 6235,
      "reet": 6236,
      "Ġmonitoring": 6237,
      "Ġemotion": 6238,
      "Ġbreaking": 6239,
      "Ġsession": 6240,
      "Ġorganic": 6241,
      "Ġhospital": 6242,
      "ester": 6243,
      "Ġunusual": 6244,
      "inant": 6245,
      "Ġunp": 6246,
      "nection": 6247,
      "Ġaccommodations": 6248,
      "Ġsmell": 6249,
      "ĠJames": 6250,
      "Ġjobs": 6251,
      "Ġdecrease": 6252,
      "Ġgam": 6253,
      "pat": 6254,
      "Ġevening": 6255,
      "Ġstandards": 6256,
      "().": 6257,
      "Ġleadership": 6258,
      "Ġguarant": 6259,
      "herent": 6260,
      "ifier": 6261,
      "sit": 6262,
      "stac": 6263,
      "Mod": 6264,
      "Ġpricing": 6265,
      "Ċĉ": 6266,
      "Ġrealize": 6267,
      "Ġimagination": 6268,
      "Ġcompleted": 6269,
      "Ġisinstance": 6270,
      "Ġjournal": 6271,
      "bf": 6272,
      "Ġnumerical": 6273,
      "Ġ[\"": 6274,
      "Ġarise": 6275,
      "Ġbuildings": 6276,
      ">>": 6277,
      "Ġforg": 6278,
      "Ġcalculates": 6279,
      "Col": 6280,
      "Ġdrives": 6281,
      "Ġconsec": 6282,
      "Ġvital": 6283,
      "]:": 6284,
      "Ġcompetitive": 6285,
      "Ġgal": 6286,
      "rip": 6287,
      "Ġsplit": 6288,
      "Ġ${": 6289,
      "Ġgreatly": 6290,
      "Ġnetworks": 6291,
      "Ġemiss": 6292,
      "Ġscientists": 6293,
      "Ġdistributions": 6294,
      "ĠâīĪ": 6295,
      "iform": 6296,
      "rypt": 6297,
      "ĠAsk": 6298,
      "abling": 6299,
      "Ġcars": 6300,
      "ĠURL": 6301,
      "Ġjustice": 6302,
      "oun": 6303,
      "Ġbasis": 6304,
      "iem": 6305,
      "Ġconsecutive": 6306,
      "Ġtargeted": 6307,
      "Ġsizes": 6308,
      "Ġexplanations": 6309,
      "Ġconvenient": 6310,
      "AS": 6311,
      "ĠPe": 6312,
      "itial": 6313,
      "free": 6314,
      "ĠGerm": 6315,
      "34": 6316,
      "Ġrelation": 6317,
      "pson": 6318,
      "Ġincredible": 6319,
      "All": 6320,
      "Ġdro": 6321,
      "Ġtried": 6322,
      "Ġfish": 6323,
      "Ġdenote": 6324,
      "Ġaccurately": 6325,
      "Ġverify": 6326,
      "Ġsequences": 6327,
      "ronic": 6328,
      "Ġregarding": 6329,
      "Ġrein": 6330,
      "ĠOnce": 6331,
      "Ġinspire": 6332,
      "gy": 6333,
      "cling": 6334,
      "Ġ$$\\": 6335,
      "Ġcomments": 6336,
      "Ġproportion": 6337,
      "Ġconsole": 6338,
      "Ġvolunte": 6339,
      "Ġboy": 6340,
      "Ġbeach": 6341,
      "ĠEnsure": 6342,
      "Ġphotos": 6343,
      "Key": 6344,
      "mark": 6345,
      "WriteLine": 6346,
      "beta": 6347,
      "Ġinconsist": 6348,
      "ldots": 6349,
      "Ġrewards": 6350,
      "Ġmodeling": 6351,
      "ĠAb": 6352,
      "Ġpsychological": 6353,
      "Ġfailure": 6354,
      "ĠLondon": 6355,
      "elta": 6356,
      "Ġpassive": 6357,
      "Ġpiv": 6358,
      "Ġheld": 6359,
      "Ġetc": 6360,
      "field": 6361,
      "endl": 6362,
      "Ġexamining": 6363,
      "Ġcontract": 6364,
      "Ġentry": 6365,
      "odies": 6366,
      "ube": 6367,
      "Ġshadows": 6368,
      "Ġlabor": 6369,
      "Ġreputation": 6370,
      "Ġinhabitants": 6371,
      "Ġpace": 6372,
      "Ġfaith": 6373,
      "ĊĊĠ": 6374,
      "Ġconsideration": 6375,
      "âĢĿ": 6376,
      "Ġ150": 6377,
      "ĠProvide": 6378,
      "bject": 6379,
      "gu": 6380,
      "izon": 6381,
      "Ġpassing": 6382,
      "Ġpros": 6383,
      "ĠFunction": 6384,
      "Ġstar": 6385,
      "Ġcurves": 6386,
      "Ġmeditation": 6387,
      "Would": 6388,
      "Ġvillage": 6389,
      "ednes": 6390,
      "Ġinvent": 6391,
      "working": 6392,
      "Ġdrink": 6393,
      "Ġdepart": 6394,
      "acebook": 6395,
      "ss": 6396,
      "Ġheads": 6397,
      "stablish": 6398,
      "spec": 6399,
      "Ġrecognizing": 6400,
      "Ġsubst": 6401,
      "Ġvalidate": 6402,
      "ĠUs": 6403,
      "Ġobstac": 6404,
      "Ġinternational": 6405,
      "Ġsyn": 6406,
      "Ġreduction": 6407,
      "Count": 6408,
      "rat": 6409,
      "Ġescape": 6410,
      "oolean": 6411,
      "hips": 6412,
      "imeter": 6413,
      "Ġlogarithm": 6414,
      "Ġseam": 6415,
      "Ġvalidity": 6416,
      "Ġobtained": 6417,
      "hell": 6418,
      "rew": 6419,
      "Ġchannel": 6420,
      "inated": 6421,
      "ref": 6422,
      "Ġeleg": 6423,
      "lations": 6424,
      "Ġcorner": 6425,
      "Ġfacilitate": 6426,
      "Ġmaybe": 6427,
      "ourage": 6428,
      "Ġoccurred": 6429,
      "Ġpayment": 6430,
      "Ġshopping": 6431,
      "push": 6432,
      "txt": 6433,
      "Ġretaining": 6434,
      "Ġinteraction": 6435,
      "Ġhappen": 6436,
      "Ġanswers": 6437,
      "ĠLook": 6438,
      "Ġsupportive": 6439,
      "New": 6440,
      "ĨĴ": 6441,
      "erie": 6442,
      "Ġcert": 6443,
      "ĠDespite": 6444,
      "ĠAnaly": 6445,
      "ris": 6446,
      "Ġlasting": 6447,
      "Ġentirely": 6448,
      "98": 6449,
      "Develop": 6450,
      "Ġworkers": 6451,
      "first": 6452,
      "real": 6453,
      "Ġhit": 6454,
      "Ġplayed": 6455,
      "Ġrenewable": 6456,
      "Ġcooking": 6457,
      "Ġpurposes": 6458,
      "Ġrestrict": 6459,
      "zon": 6460,
      "Ġperiods": 6461,
      "Ġmur": 6462,
      "Ġexecution": 6463,
      "pmatrix": 6464,
      "Ġavoiding": 6465,
      "digit": 6466,
      "Ġreference": 6467,
      "chen": 6468,
      "Ġenum": 6469,
      "Ġpunct": 6470,
      "uals": 6471,
      "ĠAM": 6472,
      "Ġsuggesting": 6473,
      "Ġproced": 6474,
      "ocking": 6475,
      "Ġguard": 6476,
      "Ġrock": 6477,
      "apes": 6478,
      "rency": 6479,
      "lib": 6480,
      "Ġregardless": 6481,
      "Ġfunds": 6482,
      "Ġexperiencing": 6483,
      "alid": 6484,
      "Ġpoor": 6485,
      "entence": 6486,
      "ascript": 6487,
      "Ġapps": 6488,
      "Ġmotivation": 6489,
      "Ġtalent": 6490,
      "Ġlessons": 6491,
      "ednesday": 6492,
      "Ġnoticed": 6493,
      "Ġentity": 6494,
      "Ġskilled": 6495,
      "iemann": 6496,
      "Ġdemonstrates": 6497,
      "Ġtemperatures": 6498,
      ",\\": 6499,
      "Id": 6500,
      "Ġimpacts": 6501,
      "equiv": 6502,
      "Ġseeing": 6503,
      "API": 6504,
      "False": 6505,
      "Ġproceed": 6506,
      "ĠBritish": 6507,
      "Ġcourses": 6508,
      "Ġtangent": 6509,
      "oking": 6510,
      "ĠMin": 6511,
      "Ġcorpor": 6512,
      "calculate": 6513,
      "raction": 6514,
      "Ġtypical": 6515,
      "Ġdeliver": 6516,
      "Ġpen": 6517,
      "ĠName": 6518,
      "Ġmoves": 6519,
      "Trans": 6520,
      "Ġmilit": 6521,
      "Ġnational": 6522,
      "Ġselected": 6523,
      "='": 6524,
      "Ġstructured": 6525,
      "which": 6526,
      "Ġexperim": 6527,
      "ilater": 6528,
      "Ġisolation": 6529,
      "Ġ180": 6530,
      "dec": 6531,
      "Ġdoors": 6532,
      "Ġreported": 6533,
      "Array": 6534,
      "Ġseamless": 6535,
      "Ġfine": 6536,
      "Ġlifest": 6537,
      "fty": 6538,
      "javascript": 6539,
      "Ġmechanisms": 6540,
      "Ġambigu": 6541,
      "NA": 6542,
      "Ġcalm": 6543,
      "Ġgrid": 6544,
      "bin": 6545,
      "Ġconcent": 6546,
      "error": 6547,
      ")=": 6548,
      "66": 6549,
      "Ġdistances": 6550,
      "Ġcold": 6551,
      "Ġobserve": 6552,
      "Ġexcellent": 6553,
      "ny": 6554,
      "ĠMat": 6555,
      "Ġkeywords": 6556,
      "then": 6557,
      "building": 6558,
      "Ġsupply": 6559,
      "create": 6560,
      "ferent": 6561,
      "Ġintense": 6562,
      "Ġresolve": 6563,
      "Ġinspired": 6564,
      "Ġselling": 6565,
      "Ġshel": 6566,
      "Ġsole": 6567,
      "Ġpeak": 6568,
      "ading": 6569,
      "itely": 6570,
      "Ġcurv": 6571,
      "process": 6572,
      "Ġinvalid": 6573,
      "Ġspect": 6574,
      "Ġinclusive": 6575,
      "Ġenabling": 6576,
      "Ġsac": 6577,
      "aten": 6578,
      "Ġrevolution": 6579,
      "itage": 6580,
      "stone": 6581,
      "Ġemphasize": 6582,
      "Ġlux": 6583,
      "ĠABC": 6584,
      "Ġ85": 6585,
      "Ġabandon": 6586,
      "Ġcaused": 6587,
      "Dis": 6588,
      "Ġcaught": 6589,
      "valuate": 6590,
      "imensions": 6591,
      "ĠJust": 6592,
      "Ġarticles": 6593,
      "Ġoptimal": 6594,
      "Ġreaches": 6595,
      "Ġcalculations": 6596,
      "Ġyield": 6597,
      "Ġanyone": 6598,
      "ĠJavaScript": 6599,
      "Ġdecline": 6600,
      "uis": 6601,
      "Ġsurroundings": 6602,
      "}_": 6603,
      "obj": 6604,
      "Ġproperly": 6605,
      "ĠAust": 6606,
      "Ġcha": 6607,
      "ĠFacebook": 6608,
      "Ġpositions": 6609,
      "Ġopposite": 6610,
      "Ġhi": 6611,
      "Ġnotes": 6612,
      "tan": 6613,
      "ĠAng": 6614,
      "ĠTV": 6615,
      "ĠGree": 6616,
      "Ġgeneration": 6617,
      "Ġwaves": 6618,
      "Ġcitiz": 6619,
      "Ġsports": 6620,
      "phi": 6621,
      "Ġshorter": 6622,
      "Ġrights": 6623,
      "Ġaffects": 6624,
      "Ġconvergence": 6625,
      "37": 6626,
      "Ġ300": 6627,
      "Ġincent": 6628,
      "II": 6629,
      "insert": 6630,
      "Ġextensive": 6631,
      "Ġoptimization": 6632,
      "Ġlever": 6633,
      "Ġfactorial": 6634,
      "Ġshaping": 6635,
      "do": 6636,
      "total": 6637,
      "Ġcoo": 6638,
      "Ġhomes": 6639,
      "endence": 6640,
      "Ġheavy": 6641,
      "Ġwhereas": 6642,
      "zero": 6643,
      "Ġdiscussions": 6644,
      "Ġcollected": 6645,
      "Ġintegrating": 6646,
      "Ġdescribing": 6647,
      "Ġexplo": 6648,
      "lor": 6649,
      "Ġintriguing": 6650,
      "ĠHar": 6651,
      "uary": 6652,
      "ãĤ": 6653,
      "Ġchatb": 6654,
      "Ġcharts": 6655,
      "avors": 6656,
      "Ġphenomena": 6657,
      "Keep": 6658,
      "^{-": 6659,
      "Inter": 6660,
      "Ġfetch": 6661,
      "ingly": 6662,
      "Ġpaid": 6663,
      "ressed": 6664,
      "Ġbrack": 6665,
      "Ġfitness": 6666,
      "infty": 6667,
      "Ġbright": 6668,
      "File": 6669,
      "Dr": 6670,
      "ducation": 6671,
      "jection": 6672,
      "Ġagricult": 6673,
      "Ġlibraries": 6674,
      "Ġdreams": 6675,
      "}},": 6676,
      "Ġflat": 6677,
      "Gener": 6678,
      "Ġstrategic": 6679,
      "ĠMaybe": 6680,
      "Ġforget": 6681,
      "Ġwriters": 6682,
      "Ġguest": 6683,
      "page": 6684,
      "Ġastr": 6685,
      "ĊĠĠĠĠĠĠĠĠĠĠĠĠĠĠĠĠĠĠĠĠĠĠĠ": 6686,
      "itter": 6687,
      "Thanks": 6688,
      "Ġcapabilities": 6689,
      "Ġreadability": 6690,
      "uge": 6691,
      "Î¸": 6692,
      "Ġegg": 6693,
      "Ġhub": 6694,
      "Ġcris": 6695,
      "ĠInter": 6696,
      "osis": 6697,
      "Ġappeal": 6698,
      "}^": 6699,
      "ene": 6700,
      "Ġspecialized": 6701,
      "what": 6702,
      "Ġdescriptions": 6703,
      "ena": 6704,
      "Ġmaps": 6705,
      "plify": 6706,
      "Calculate": 6707,
      "Ġextremely": 6708,
      "Ġexcess": 6709,
      "Ġdescribes": 6710,
      "Ġacceler": 6711,
      "Ġpainting": 6712,
      "Ġdeli": 6713,
      "Ġmerg": 6714,
      "older": 6715,
      "Ġauthority": 6716,
      "Ġtied": 6717,
      "Ġbelievable": 6718,
      "AD": 6719,
      "Ġcoins": 6720,
      "Ġearn": 6721,
      "Ġunfold": 6722,
      "}-": 6723,
      "Ġvariation": 6724,
      "Ġ,": 6725,
      "Ġsevere": 6726,
      "riday": 6727,
      "Ġacknowledge": 6728,
      "udent": 6729,
      "endar": 6730,
      "ĠMart": 6731,
      "Ġmetap": 6732,
      "Ġdollars": 6733,
      "Ġmole": 6734,
      "Ġgar": 6735,
      "Ġson": 6736,
      "Ġruns": 6737,
      "ulti": 6738,
      "org": 6739,
      "ĠAfric": 6740,
      "Ġyields": 6741,
      "arsh": 6742,
      "ĠEmilia": 6743,
      "Ġoil": 6744,
      "Ġdie": 6745,
      "Ġbur": 6746,
      "ĠPM": 6747,
      "Ġequipped": 6748,
      "65": 6749,
      "Ġera": 6750,
      "Ġunease": 6751,
      "tem": 6752,
      "atically": 6753,
      "rote": 6754,
      "Ġrecognition": 6755,
      "Ġemergency": 6756,
      "istory": 6757,
      "ĠArt": 6758,
      "Ġhesit": 6759,
      "Ġleaders": 6760,
      "Ġwear": 6761,
      "Ġequals": 6762,
      "Ġrelate": 6763,
      "rial": 6764,
      "Ġcopy": 6765,
      "Ġoverly": 6766,
      "Ġslips": 6767,
      "Ġexceed": 6768,
      "Ġmale": 6769,
      "Ġtech": 6770,
      "Ġmassive": 6771,
      "Ġapproxim": 6772,
      "Ġconcerned": 6773,
      "ĠRiemann": 6774,
      "rain": 6775,
      "Ġprimes": 6776,
      "Ġprison": 6777,
      "Ġpresenting": 6778,
      "Ġokay": 6779,
      "Ġmerge": 6780,
      "Ġlighting": 6781,
      "OV": 6782,
      "Ġ(\\": 6783,
      "Ġcurvature": 6784,
      "Read": 6785,
      "erver": 6786,
      "Ġrepet": 6787,
      "spe": 6788,
      "ĠâĢľ": 6789,
      "Ġinternet": 6790,
      "Ġseasonal": 6791,
      "Ġworry": 6792,
      "ĠGet": 6793,
      "Ġenvision": 6794,
      "tw": 6795,
      "Ġpages": 6796,
      "Ġreached": 6797,
      "emory": 6798,
      "ket": 6799,
      "ether": 6800,
      "Ġadvertising": 6801,
      "Ġdelivery": 6802,
      "books": 6803,
      "osure": 6804,
      "Sum": 6805,
      "run": 6806,
      "orient": 6807,
      "Ġreflecting": 6808,
      "Ġepis": 6809,
      "\"{": 6810,
      "Ġeventually": 6811,
      "Ġreveals": 6812,
      "ypes": 6813,
      "Ġhyper": 6814,
      "prov": 6815,
      "');": 6816,
      "izer": 6817,
      "ĠJan": 6818,
      "ĠSimilarly": 6819,
      "Ġcollaborative": 6820,
      "Ġwitness": 6821,
      "29": 6822,
      "Ġcompass": 6823,
      "rox": 6824,
      "unting": 6825,
      "Ġresonance": 6826,
      "TP": 6827,
      "Ġdimensions": 6828,
      "Ġcouldn": 6829,
      "Ġmansion": 6830,
      "Ġconcrete": 6831,
      "ĠIntern": 6832,
      "ĠMain": 6833,
      "Calculates": 6834,
      "sim": 6835,
      "pring": 6836,
      "Ġcounts": 6837,
      "Ġgoods": 6838,
      "Ġtraveling": 6839,
      "Ġfat": 6840,
      "Ġfashion": 6841,
      "Ġsupports": 6842,
      "Ġsnipp": 6843,
      "Ġwondering": 6844,
      "Ġadults": 6845,
      "Ġentertainment": 6846,
      "rog": 6847,
      "ĠInstagram": 6848,
      "eath": 6849,
      "ĠDefine": 6850,
      "dx": 6851,
      "ometric": 6852,
      "erts": 6853,
      "Ġblocks": 6854,
      "Ġharness": 6855,
      "Ġguilt": 6856,
      "Ġemissions": 6857,
      "Ġ\"))": 6858,
      "ĠWednesday": 6859,
      "Ġargs": 6860,
      "phone": 6861,
      "Ġjustify": 6862,
      "Ġpredictions": 6863,
      "filename": 6864,
      "iable": 6865,
      "ĠNorth": 6866,
      "hern": 6867,
      "Ġecosystems": 6868,
      "Ġimagine": 6869,
      "Ġstret": 6870,
      "Ġflo": 6871,
      "Ġowner": 6872,
      "Ġcontributing": 6873,
      "info": 6874,
      "###": 6875,
      "Ġspeaking": 6876,
      "Sarah": 6877,
      "Ġlabel": 6878,
      "Ġlifestyle": 6879,
      "Ġpython": 6880,
      "idents": 6881,
      "uce": 6882,
      "Ġkeyword": 6883,
      "elihood": 6884,
      "Ġtarg": 6885,
      "ĠWar": 6886,
      "ĠRemember": 6887,
      "ĠLinked": 6888,
      "Ġdiscussed": 6889,
      "Ġpartnerships": 6890,
      "Ġevolution": 6891,
      "Ġimpossible": 6892,
      "ĠNe": 6893,
      "eric": 6894,
      "Ġdetermining": 6895,
      "Ġprotection": 6896,
      "Ġsweet": 6897,
      "Ġsuspect": 6898,
      "Ġbeneath": 6899,
      "âĢĵ": 6900,
      "Ġride": 6901,
      "Ġrevers": 6902,
      "rences": 6903,
      "rior": 6904,
      "Ġdisrupt": 6905,
      "Ġbreath": 6906,
      "aust": 6907,
      "ĠTotal": 6908,
      "Ġskill": 6909,
      "Ġprotocol": 6910,
      "ilateral": 6911,
      "Ġrelying": 6912,
      "Ġgenerations": 6913,
      "Ġtables": 6914,
      "Ġscatter": 6915,
      "ĠÏĨ": 6916,
      "ĠRap": 6917,
      "Ġshowcases": 6918,
      "Ġdelete": 6919,
      "Ġsetup": 6920,
      "Ġreaction": 6921,
      "ulum": 6922,
      "aceted": 6923,
      "ĠMax": 6924,
      "herence": 6925,
      "Ġthrilled": 6926,
      "https": 6927,
      "asp": 6928,
      "Ġalter": 6929,
      "Ġspeech": 6930,
      "Ġfract": 6931,
      "Ġwillingness": 6932,
      "yl": 6933,
      "Ġ)": 6934,
      "Ġdinner": 6935,
      "ĠThompson": 6936,
      "ĠIts": 6937,
      "formation": 6938,
      "User": 6939,
      "band": 6940,
      "Ġpool": 6941,
      "ashing": 6942,
      "mathcal": 6943,
      "Ġskewness": 6944,
      "slant": 6945,
      "Ġpolished": 6946,
      "ĠImplement": 6947,
      "ino": 6948,
      "Ġdispl": 6949,
      "ĠÂ±": 6950,
      "ĠRob": 6951,
      "ĠJoh": 6952,
      "Ġtickets": 6953,
      "Ġsorting": 6954,
      "rich": 6955,
      "see": 6956,
      "Ġbrought": 6957,
      "Ġnested": 6958,
      "ĠGreen": 6959,
      "keys": 6960,
      "Ġpartial": 6961,
      "44": 6962,
      "wide": 6963,
      "Ġbrother": 6964,
      "lections": 6965,
      "acter": 6966,
      "accounts": 6967,
      "67": 6968,
      "vered": 6969,
      "Ġassumes": 6970,
      "price": 6971,
      "Ġsand": 6972,
      "Ġlistening": 6973,
      "Ġtraditions": 6974,
      "ourier": 6975,
      "Ġadminist": 6976,
      "apple": 6977,
      "Ġoccup": 6978,
      "rep": 6979,
      "ĠGroup": 6980,
      "Ġfestival": 6981,
      "anish": 6982,
      "onomy": 6983,
      "tery": 6984,
      "Get": 6985,
      "Ġprobabilities": 6986,
      "Ġtransitional": 6987,
      "ĠLy": 6988,
      "can": 6989,
      "ĠEuropean": 6990,
      "IM": 6991,
      "Ġhearing": 6992,
      "Ġmonthly": 6993,
      "ĠState": 6994,
      "Ġhints": 6995,
      "Ġduplicates": 6996,
      "Ġincredibly": 6997,
      "Ġcup": 6998,
      "Ġbrings": 6999,
      "Ġsuspense": 7000,
      "Ġstyles": 7001,
      "appe": 7002,
      "Conclusion": 7003,
      "ayer": 7004,
      "Ġpreserve": 7005,
      "Ġsen": 7006,
      "ishes": 7007,
      "Ġplaced": 7008,
      "Ġmood": 7009,
      "Ġidentified": 7010,
      "Ġregularly": 7011,
      "Ġretail": 7012,
      "Ġorders": 7013,
      "urch": 7014,
      "Ġhair": 7015,
      "ums": 7016,
      "ametric": 7017,
      "Ġurgency": 7018,
      "Ġseed": 7019,
      "Ġcredit": 7020,
      "Ġartistic": 7021,
      "Ġdiagn": 7022,
      "Ġaxis": 7023,
      "car": 7024,
      "icular": 7025,
      "Ġ48": 7026,
      "Ġcontributions": 7027,
      "Ġrevealed": 7028,
      "Ġfantastic": 7029,
      "igma": 7030,
      "Ġ>=": 7031,
      "Ġsor": 7032,
      "Ġrelaxation": 7033,
      "Ġfib": 7034,
      "Ġbot": 7035,
      "Ġstored": 7036,
      "ĠSw": 7037,
      "ĠExpl": 7038,
      "orous": 7039,
      "Ġpand": 7040,
      "Ġperce": 7041,
      "Ġslip": 7042,
      "Ġresonate": 7043,
      "Ġestimates": 7044,
      "Ġsampling": 7045,
      "Ġfeat": 7046,
      "Ġdishes": 7047,
      "Ġteacher": 7048,
      "AP": 7049,
      "Ġcomment": 7050,
      "arian": 7051,
      "Ġgrows": 7052,
      "ĠGod": 7053,
      "email": 7054,
      "Ġsalaries": 7055,
      "Ġenjoyable": 7056,
      "natural": 7057,
      "Ġnoise": 7058,
      "Ġselecting": 7059,
      "Ġquarter": 7060,
      "city": 7061,
      "ĠGener": 7062,
      "Ġflowers": 7063,
      "Ġphenomenon": 7064,
      "Ġmoon": 7065,
      "akers": 7066,
      "Ġhappiness": 7067,
      "Ġstatistically": 7068,
      "Ġcourt": 7069,
      "Ġabsor": 7070,
      "dfrac": 7071,
      "Ġwave": 7072,
      "ĠLa": 7073,
      "Ġserving": 7074,
      "En": 7075,
      "Ġlights": 7076,
      "plot": 7077,
      "itative": 7078,
      "uling": 7079,
      "ultip": 7080,
      "Ġmarkets": 7081,
      "Ġadjac": 7082,
      "Ġ...,": 7083,
      "ĠCould": 7084,
      "Ġregulations": 7085,
      "state": 7086,
      "ĠAria": 7087,
      "}$$": 7088,
      "Ġevaluation": 7089,
      "Ġextension": 7090,
      "Ġpurchasing": 7091,
      "Ġattributes": 7092,
      "Ġdirections": 7093,
      "Ġrooms": 7094,
      "Ġattendees": 7095,
      "och": 7096,
      "Ġsamples": 7097,
      "Ġbrow": 7098,
      "Ġtailored": 7099,
      "Ġgalax": 7100,
      "Ġkitchen": 7101,
      "Ġtransitions": 7102,
      "Ġembracing": 7103,
      "Ġlikelihood": 7104,
      "sue": 7105,
      "Ġreflects": 7106,
      "Ġdiversity": 7107,
      "Ġdance": 7108,
      "Ġvar": 7109,
      "Ġworkshop": 7110,
      "Ġsyntax": 7111,
      "Ġchemical": 7112,
      "iences": 7113,
      "Ġartifacts": 7114,
      "Ġ&=": 7115,
      "fast": 7116,
      "ipe": 7117,
      "ounce": 7118,
      "Ġconfusion": 7119,
      "ravel": 7120,
      "achel": 7121,
      "Ġtransl": 7122,
      "Ġwildlife": 7123,
      "pany": 7124,
      "Ġcriteria": 7125,
      "Ġevoke": 7126,
      "%.": 7127,
      "Ġreject": 7128,
      "query": 7129,
      "Ġbreaks": 7130,
      "Ġsympt": 7131,
      "cuss": 7132,
      "ura": 7133,
      "Ġjoint": 7134,
      "Ġcenturies": 7135,
      "marks": 7136,
      "Ġstanding": 7137,
      "ately": 7138,
      "Ġhex": 7139,
      "ĠLog": 7140,
      "cluding": 7141,
      "element": 7142,
      "Ġreliability": 7143,
      "Ġmilitary": 7144,
      "****": 7145,
      "ĠVR": 7146,
      "Ġlongest": 7147,
      "ugging": 7148,
      "Ġcredibility": 7149,
      "Ġcoherence": 7150,
      "Ġcurric": 7151,
      "Ġlowercase": 7152,
      "Ġvulnerable": 7153,
      "TE": 7154,
      "versal": 7155,
      "Ġindu": 7156,
      "Ġinterv": 7157,
      "ĠFriday": 7158,
      "sharp": 7159,
      "Ġtwists": 7160,
      "Ġmentors": 7161,
      "Ġpunctuation": 7162,
      "aria": 7163,
      "Ġappropri": 7164,
      "Ġrecall": 7165,
      "ĠImagine": 7166,
      "Ġ```": 7167,
      "Ġox": 7168,
      "Ġexpensive": 7169,
      "comm": 7170,
      "distance": 7171,
      "Ġvent": 7172,
      "Ġdivisor": 7173,
      "ĠJune": 7174,
      "Ġedges": 7175,
      "ĠGa": 7176,
      "ĠFourier": 7177,
      "Ġcircles": 7178,
      "Ġalien": 7179,
      "Ġmovements": 7180,
      "$\\": 7181,
      "since": 7182,
      "Ġgod": 7183,
      "textbf": 7184,
      "ĠRoman": 7185,
      "ĠRapid": 7186,
      "Ġenables": 7187,
      "Ġtuples": 7188,
      "Ġmarkdown": 7189,
      "craft": 7190,
      "Ġgaps": 7191,
      "Ġorg": 7192,
      "Ġanalytics": 7193,
      "Ġeveryday": 7194,
      "Ġintegrated": 7195,
      "Ġboxes": 7196,
      "Ġdatetime": 7197,
      "ĠMaya": 7198,
      "Ġskewed": 7199,
      "Ġdecided": 7200,
      "Ġbulb": 7201,
      "Ġhus": 7202,
      "Ġintroduced": 7203,
      "Ġcoding": 7204,
      "Throughout": 7205,
      "38": 7206,
      "Ġsymmetries": 7207,
      "amma": 7208,
      "cap": 7209,
      "ections": 7210,
      "Ġoverview": 7211,
      "Ġargue": 7212,
      "`)": 7213,
      "lement": 7214,
      "Ġjava": 7215,
      "Ġownership": 7216,
      "Ġvisited": 7217,
      "Ġamounts": 7218,
      "Ġparabol": 7219,
      "Ġhorizon": 7220,
      "oper": 7221,
      "Ġfing": 7222,
      "Ġreact": 7223,
      "Ġwebsites": 7224,
      "Ġtor": 7225,
      "iller": 7226,
      "Ġiterative": 7227,
      "Ġpuzzle": 7228,
      "Ġcontexts": 7229,
      "mitted": 7230,
      "Ġsubstitute": 7231,
      "ham": 7232,
      "Ġmapping": 7233,
      "Ġimper": 7234,
      "Ġproposed": 7235,
      "!\"": 7236,
      "etrie": 7237,
      "net": 7238,
      "Ġuniform": 7239,
      "nswer": 7240,
      "Ġprofile": 7241,
      "Ġencouraging": 7242,
      "heit": 7243,
      "Ġrhythm": 7244,
      "unic": 7245,
      "ĠGreat": 7246,
      "Ġwhispers": 7247,
      "Ġcommonly": 7248,
      "Ġunders": 7249,
      "ĠBlack": 7250,
      "squared": 7251,
      "Ġdefining": 7252,
      "Te": 7253,
      "Ġattacks": 7254,
      "Ġaims": 7255,
      "username": 7256,
      "ĠAB": 7257,
      "ĠBob": 7258,
      "Ġ34": 7259,
      "Ġcuis": 7260,
      "Ġarrays": 7261,
      "Ġthrive": 7262,
      "Ġmountain": 7263,
      "ipse": 7264,
      "Ġelev": 7265,
      "ĠSmith": 7266,
      "Frame": 7267,
      "Ġdry": 7268,
      "Ġhousing": 7269,
      "Ġheavily": 7270,
      "Ġband": 7271,
      "Ġcolon": 7272,
      "chant": 7273,
      "ussian": 7274,
      "Ġsites": 7275,
      "Ġvisualizations": 7276,
      "ĠAccording": 7277,
      "Ġclothing": 7278,
      "Ġobservation": 7279,
      "azing": 7280,
      "js": 7281,
      "Ġtact": 7282,
      "Ġagg": 7283,
      "Ġdocuments": 7284,
      "bi": 7285,
      "|\\": 7286,
      "Ġcodes": 7287,
      "ĠAN": 7288,
      "Ġ-\\": 7289,
      "77": 7290,
      "efficient": 7291,
      "Ġsubscri": 7292,
      "plate": 7293,
      "Ġneut": 7294,
      "Ġimply": 7295,
      "Ġprioritizing": 7296,
      "Ġdecom": 7297,
      "Ġaspir": 7298,
      "ĠAir": 7299,
      "Ġpointer": 7300,
      "ĠCS": 7301,
      "ahren": 7302,
      "Ġmarine": 7303,
      "Ġwider": 7304,
      "Ġemphasis": 7305,
      "ULL": 7306,
      "night": 7307,
      "ĠBC": 7308,
      "Ġslowly": 7309,
      "ĠSpecifically": 7310,
      "ĠAv": 7311,
      "consc": 7312,
      "ahrenheit": 7313,
      "Ġeat": 7314,
      "Ġbrackets": 7315,
      "vari": 7316,
      "Ġhelped": 7317,
      "Ġwisdom": 7318,
      "Be": 7319,
      "Ġmeals": 7320,
      "Ġcombinator": 7321,
      "Ġshowcasing": 7322,
      "ĠPerson": 7323,
      "Ġcomposition": 7324,
      "hello": 7325,
      "Ġcutting": 7326,
      "Ġcube": 7327,
      "Ġtheories": 7328,
      "agement": 7329,
      "Ġoccurrences": 7330,
      "());": 7331,
      "mazon": 7332,
      "Ġthus": 7333,
      "Ġintros": 7334,
      "oses": 7335,
      "nson": 7336,
      "Ġwall": 7337,
      "uses": 7338,
      "Ġreleased": 7339,
      "Ġfunctionality": 7340,
      "Ġtalking": 7341,
      "alindrome": 7342,
      "Ġfrequently": 7343,
      "Ġpollution": 7344,
      "istant": 7345,
      "Ġsegments": 7346,
      "Ġglim": 7347,
      "Ġsensors": 7348,
      "Ġroute": 7349,
      "ĠRapidAPI": 7350,
      "conscious": 7351,
      ")^{": 7352,
      "acc": 7353,
      "Ġminute": 7354,
      "Ġpursue": 7355,
      "Ġfigures": 7356,
      "App": 7357,
      "Ġclock": 7358,
      "AL": 7359,
      "Ġinher": 7360,
      "Ġmeant": 7361,
      "Ġrecursion": 7362,
      "ga": 7363,
      "fs": 7364,
      "**,": 7365,
      "Ġthreshold": 7366,
      "Ġconverted": 7367,
      "endicular": 7368,
      "Ġtack": 7369,
      "Ġbond": 7370,
      "Ġspo": 7371,
      "Ġexplores": 7372,
      "ipl": 7373,
      "Ġcharge": 7374,
      "Ġfirm": 7375,
      "Ġexercises": 7376,
      "ĠGal": 7377,
      ")}\\": 7378,
      "Man": 7379,
      "db": 7380,
      "omials": 7381,
      "Ġ\"__": 7382,
      "ission": 7383,
      "Ġsurvival": 7384,
      "sis": 7385,
      "reating": 7386,
      "Ġcream": 7387,
      "Ġreports": 7388,
      "Ġcultiv": 7389,
      "Ġaffordable": 7390,
      "Ġ-=": 7391,
      "Ġdiss": 7392,
      "Ġhappens": 7393,
      "Log": 7394,
      "ilon": 7395,
      "month": 7396,
      "ĠHealth": 7397,
      "Ident": 7398,
      "Ġtelling": 7399,
      "Ġmechanics": 7400,
      "Ġincident": 7401,
      "Ġglad": 7402,
      "Ġ29": 7403,
      "heses": 7404,
      "Ġboost": 7405,
      "ĠAg": 7406,
      "Ġanswering": 7407,
      "Ġdeadline": 7408,
      "phism": 7409,
      "Ġwrote": 7410,
      "angers": 7411,
      "Ġknowing": 7412,
      "ica": 7413,
      "onal": 7414,
      "ceptions": 7415,
      "Ġconsumer": 7416,
      "apter": 7417,
      ".\\": 7418,
      "Ġnuance": 7419,
      "orean": 7420,
      "Ġinfluencers": 7421,
      "oes": 7422,
      "Ġlived": 7423,
      "Ġscenic": 7424,
      "ĠRegular": 7425,
      "Ġten": 7426,
      "Ġnavigating": 7427,
      "plex": 7428,
      "bsolute": 7429,
      "Ġenthusiasm": 7430,
      "Ġdiagonal": 7431,
      "Ġflight": 7432,
      "ĠShow": 7433,
      "Ġaccomplish": 7434,
      "Ġcubic": 7435,
      "Ġunpredict": 7436,
      "Ġcents": 7437,
      "ĠAut": 7438,
      "Ġgave": 7439,
      "Ġalive": 7440,
      "Ġappreciation": 7441,
      "Ġdict": 7442,
      "ĠPass": 7443,
      "Ġsight": 7444,
      "Ġrepresentative": 7445,
      "Ġmurder": 7446,
      "ĠĊĠĠ": 7447,
      "pril": 7448,
      "Ġorganized": 7449,
      "Ġfemale": 7450,
      "det": 7451,
      "Ġsolely": 7452,
      "csharp": 7453,
      "width": 7454,
      "Ġgift": 7455,
      "Ġarrive": 7456,
      "Ġconsistently": 7457,
      "($": 7458,
      "Ġiconic": 7459,
      "31": 7460,
      "csv": 7461,
      "Ġ55": 7462,
      "icking": 7463,
      "Ġassuming": 7464,
      "Ġcommitted": 7465,
      "Ġpit": 7466,
      "Ġmachines": 7467,
      "Ġcryst": 7468,
      "AM": 7469,
      "direct": 7470,
      "Ġmultiples": 7471,
      "Ġconsists": 7472,
      "Ġmotivated": 7473,
      "ocity": 7474,
      "Despite": 7475,
      "Ġlose": 7476,
      "otten": 7477,
      "ĠIP": 7478,
      "Ġstone": 7479,
      "ords": 7480,
      "cip": 7481,
      "Ġranges": 7482,
      "Ġbak": 7483,
      "post": 7484,
      "Ġstick": 7485,
      "Ġcovered": 7486,
      "ĠPres": 7487,
      "Ġmagnitude": 7488,
      "ĠDetermine": 7489,
      "Ġcul": 7490,
      "Ġtough": 7491,
      "floor": 7492,
      "ierarch": 7493,
      "Ġlayout": 7494,
      "Ġreferred": 7495,
      "Ġvoc": 7496,
      "Ġremark": 7497,
      "Ġnavigates": 7498,
      "option": 7499,
      "Ġvel": 7500,
      "ĠSec": 7501,
      "__\":": 7502,
      "try": 7503,
      "Ġconversion": 7504,
      "Ġcalendar": 7505,
      "Ġattending": 7506,
      "ĠAmerica": 7507,
      "ki": 7508,
      "ĠStack": 7509,
      "Ġusername": 7510,
      "Ġindices": 7511,
      "Ġbutton": 7512,
      "ĠInclude": 7513,
      "blem": 7514,
      "Ġextend": 7515,
      "Ġsimplified": 7516,
      "edge": 7517,
      "ursive": 7518,
      "Ġresolution": 7519,
      "Ġfewer": 7520,
      "Ġsupported": 7521,
      "Ġuniversal": 7522,
      "ician": 7523,
      "ĠAug": 7524,
      "Ġattempts": 7525,
      "Ġinvesting": 7526,
      "Ġguided": 7527,
      "Ġmeetings": 7528,
      "Ġarrangements": 7529,
      "ĊĠĠĠĠĠĠĠĠĠ": 7530,
      "Ġopinions": 7531,
      "mp": 7532,
      "ĠCons": 7533,
      "Ġutilize": 7534,
      "remove": 7535,
      "Ġsimpler": 7536,
      "abet": 7537,
      "Ġcomprom": 7538,
      "Ġdisplays": 7539,
      "Ġmill": 7540,
      "Ġ$-": 7541,
      "Ġmysteries": 7542,
      "Ġliterature": 7543,
      "through": 7544,
      "Ġdistingu": 7545,
      "names": 7546,
      "Ġos": 7547,
      "Ġpassions": 7548,
      "Ġfeaturing": 7549,
      "Ġcorrelations": 7550,
      "ĠDoes": 7551,
      "Ġscenes": 7552,
      "Ġ((": 7553,
      "----------------": 7554,
      "ptr": 7555,
      "ĠFocus": 7556,
      "Ġunlike": 7557,
      "Ġages": 7558,
      "Ġtrial": 7559,
      "Ġsymmetric": 7560,
      "Ġchatbot": 7561,
      "Ġaspirations": 7562,
      "Ġquantity": 7563,
      "inction": 7564,
      "Ġbooking": 7565,
      "Ġli": 7566,
      "Ġclick": 7567,
      "ĠKeep": 7568,
      "Ġpopulations": 7569,
      "Ġobstacles": 7570,
      "Ġcurriculum": 7571,
      "ĠMuseum": 7572,
      "Ġgrammat": 7573,
      "image": 7574,
      "Ġiterates": 7575,
      "ĠMars": 7576,
      "Ġpalindrome": 7577,
      "ĠAct": 7578,
      "Ġcategorical": 7579,
      "Ġofficial": 7580,
      "49": 7581,
      "approx": 7582,
      "quent": 7583,
      "Ġhiking": 7584,
      "Ġauthenticity": 7585,
      "Ġ400": 7586,
      "uctive": 7587,
      "Ġderived": 7588,
      "ncil": 7589,
      "Ġnutrit": 7590,
      "Ġregist": 7591,
      "Ġcharacteristic": 7592,
      "Ġheritage": 7593,
      "Ġprintf": 7594,
      "Ġperpendicular": 7595,
      "provoking": 7596,
      "ĠDay": 7597,
      "Ġyounger": 7598,
      "itors": 7599,
      "Ġcontem": 7600,
      "gers": 7601,
      "Ġtoken": 7602,
      "Ġmystical": 7603,
      "iom": 7604,
      "Rec": 7605,
      "hash": 7606,
      "ĠRead": 7607,
      "Ġappearance": 7608,
      "Ġagency": 7609,
      "Ġbinomial": 7610,
      "Ġduration": 7611,
      "Ġturning": 7612,
      "Ġcampaigns": 7613,
      "eness": 7614,
      "Ġinqu": 7615,
      "ĠBoth": 7616,
      "Ġacknowledging": 7617,
      "gl": 7618,
      "exp": 7619,
      "Ġwasn": 7620,
      "Analy": 7621,
      "Ġdanger": 7622,
      "Ġrealized": 7623,
      "Ġoptimized": 7624,
      "Ġdaughter": 7625,
      "Ġtight": 7626,
      "Ġends": 7627,
      "Ġiteration": 7628,
      "Stack": 7629,
      "Ġalternatives": 7630,
      "ĠBre": 7631,
      "ĠEast": 7632,
      "Ġtestament": 7633,
      "Ġholding": 7634,
      "Ġmilest": 7635,
      "relation": 7636,
      "IT": 7637,
      "Ġgear": 7638,
      "Ġsymptoms": 7639,
      "\"))": 7640,
      "fol": 7641,
      "Ġthous": 7642,
      "Ġrank": 7643,
      "ĠUK": 7644,
      "ĠJohnson": 7645,
      "base": 7646,
      "Ġdiscovers": 7647,
      "ĠâĨĴ": 7648,
      "Ġreduces": 7649,
      "Ġmanipulation": 7650,
      "Ġhappened": 7651,
      "Ġcitizens": 7652,
      "eless": 7653,
      "Ġconstructive": 7654,
      "Ġlogging": 7655,
      "eles": 7656,
      "Ġkm": 7657,
      "Ġsmile": 7658,
      "Ġ||": 7659,
      "Ġtit": 7660,
      "Ġquot": 7661,
      "Ġisolated": 7662,
      "alt": 7663,
      "Ġsnippet": 7664,
      "Ġbought": 7665,
      "Ġcongru": 7666,
      "ĠOpen": 7667,
      "Return": 7668,
      "Ġleverage": 7669,
      "ĠPre": 7670,
      "Ġbon": 7671,
      "lie": 7672,
      "Ġ64": 7673,
      "Ġgravity": 7674,
      "Ġthick": 7675,
      "Ġjson": 7676,
      "Ġcandidate": 7677,
      "ncy": 7678,
      "Ġdiver": 7679,
      "Ġcoordinate": 7680,
      "sts": 7681,
      "ĠGP": 7682,
      "ĠKael": 7683,
      "Ġnegot": 7684,
      "Ġdestinations": 7685,
      "ĠSam": 7686,
      "Ġaddresses": 7687,
      "Ġcuisine": 7688,
      "rated": 7689,
      "andard": 7690,
      "Ġdetermination": 7691,
      "Ġfacilities": 7692,
      "sql": 7693,
      "estry": 7694,
      "Ġpolitics": 7695,
      "Ġsavings": 7696,
      "found": 7697,
      "Ġmultiplication": 7698,
      "Ġagreement": 7699,
      "Ġdrinks": 7700,
      "Ġgathering": 7701,
      "output": 7702,
      "Ġnotable": 7703,
      "ĠFurthermore": 7704,
      "Ġcontradictions": 7705,
      "Ġeating": 7706,
      "chain": 7707,
      "pret": 7708,
      "ĠEuler": 7709,
      "udd": 7710,
      "Properties": 7711,
      ").\",": 7712,
      "Ġfluct": 7713,
      "]`": 7714,
      "pack": 7715,
      "Ġcapable": 7716,
      "Ġcalling": 7717,
      "Ġpermutations": 7718,
      "asts": 7719,
      "88": 7720,
      "dden": 7721,
      "match": 7722,
      "Ġseparated": 7723,
      "ĠSpanish": 7724,
      "Ġmomentum": 7725,
      "uro": 7726,
      "Ġkeeps": 7727,
      "Ġinfluencing": 7728,
      "ĠGl": 7729,
      "Ġinventory": 7730,
      "duplic": 7731,
      "anguage": 7732,
      "rolling": 7733,
      "Moreover": 7734,
      "Ġtaste": 7735,
      "eros": 7736,
      "Ġunw": 7737,
      "ymbol": 7738,
      "Ġlayers": 7739,
      "het": 7740,
      "Ġbridge": 7741,
      "Ġinterconnected": 7742,
      "aborate": 7743,
      "ĊĊĠĠĠĠĠĠĠĠĠĠĠ": 7744,
      "Ġpriority": 7745,
      "grade": 7746,
      "Ġring": 7747,
      "Ġimpression": 7748,
      "Ġdistort": 7749,
      "Ġtransformed": 7750,
      "Ġsunlight": 7751,
      "Ġsurrounded": 7752,
      "Ġdive": 7753,
      "Ġsums": 7754,
      "ursday": 7755,
      "Ġlowest": 7756,
      "Ġsquared": 7757,
      "Ġcombines": 7758,
      "viron": 7759,
      "Ġheap": 7760,
      "Ġcenters": 7761,
      "Ġpremise": 7762,
      "Ġtensor": 7763,
      "bar": 7764,
      "Ġaid": 7765,
      "pection": 7766,
      "Ġflavor": 7767,
      "Ġdesigns": 7768,
      "true": 7769,
      "Ġachieving": 7770,
      ".âĢĻ": 7771,
      "Ġpounds": 7772,
      "ĠRome": 7773,
      "Ġriver": 7774,
      "stream": 7775,
      "Ġdedication": 7776,
      "Ġfostering": 7777,
      "Ġspac": 7778,
      "Ġdiscipl": 7779,
      "Ġconveying": 7780,
      "Ġsummar": 7781,
      "ĠÐ": 7782,
      "Ġsex": 7783,
      "bound": 7784,
      "Ġthesis": 7785,
      "Ġshares": 7786,
      "}}$.": 7787,
      "Ġdimension": 7788,
      "IP": 7789,
      "Ġtherapy": 7790,
      "semb": 7791,
      "Ġinterior": 7792,
      "Ġmoderate": 7793,
      "aj": 7794,
      "height": 7795,
      "Me": 7796,
      "Ġcryptic": 7797,
      "Ġinstances": 7798,
      "ĠAmazon": 7799,
      "(),": 7800,
      "Ġrewriting": 7801,
      "Ġ99": 7802,
      "Ġelegant": 7803,
      "MM": 7804,
      "Ġrecommended": 7805,
      "Ġaccommodate": 7806,
      "htaking": 7807,
      "1000": 7808,
      "Ġessentially": 7809,
      "icious": 7810,
      "Ġcosm": 7811,
      "oded": 7812,
      "ĠProgram": 7813,
      "Ġspiritual": 7814,
      "oom": 7815,
      "repre": 7816,
      "ĠMc": 7817,
      "Ġrival": 7818,
      "reprene": 7819,
      "unity": 7820,
      "scale": 7821,
      "Ġpolynomials": 7822,
      "Ġsister": 7823,
      "Ġboolean": 7824,
      "Ġdish": 7825,
      "Ġmaximize": 7826,
      "Ġgrew": 7827,
      "html": 7828,
      "itivity": 7829,
      "ĠItal": 7830,
      "chnology": 7831,
      "Ġmajority": 7832,
      "aid": 7833,
      "Ġparabola": 7834,
      "Ġdistrict": 7835,
      "Our": 7836,
      "ĠHand": 7837,
      "Ġlosing": 7838,
      "Ġsudden": 7839,
      "Ġparticles": 7840,
      "Ġsoph": 7841,
      "Ġlesson": 7842,
      "Ġmedium": 7843,
      "Ġpasseng": 7844,
      "Ġinformative": 7845,
      "Ġarbit": 7846,
      "ategory": 7847,
      "Ġadvancements": 7848,
      "âĤ": 7849,
      "Ġluxury": 7850,
      "Ġcond": 7851,
      "yd": 7852,
      "vol": 7853,
      "Ġmer": 7854,
      "Comb": 7855,
      "ĠAc": 7856,
      "util": 7857,
      "Ġhaven": 7858,
      "Ġ65": 7859,
      "LECT": 7860,
      "Ġinherent": 7861,
      "Ġknows": 7862,
      "Ġworlds": 7863,
      "Ġprogression": 7864,
      "Ġwine": 7865,
      "Ġasym": 7866,
      "Ġorganize": 7867,
      "average": 7868,
      "ĠMont": 7869,
      "Ġconstantly": 7870,
      "Ġsymbols": 7871,
      "Ġdiscounts": 7872,
      "Ġcompassion": 7873,
      "Ġstim": 7874,
      "ĠSan": 7875,
      "umin": 7876,
      "ĠAnalysis": 7877,
      "iche": 7878,
      "Ġ31": 7879,
      "aware": 7880,
      "Ġnutri": 7881,
      "Ġbreathtaking": 7882,
      "stood": 7883,
      "Ġgap": 7884,
      "Ġrepeat": 7885,
      "Equ": 7886,
      "color": 7887,
      "Ġaudio": 7888,
      "ĠBankAccount": 7889,
      "Ġconnecting": 7890,
      "corpor": 7891,
      "Ġtwe": 7892,
      "ĠAtt": 7893,
      "Ġtransaction": 7894,
      "Ġcurious": 7895,
      "Ġlogically": 7896,
      "ubble": 7897,
      "Ġmultif": 7898,
      "ĠChoose": 7899,
      "Ġfre": 7900,
      "Ġfluid": 7901,
      "rooms": 7902,
      "Ġconsiderations": 7903,
      "Ġfinance": 7904,
      "Ġturns": 7905,
      "Ġbroken": 7906,
      "Ġtrains": 7907,
      "Ġautomatically": 7908,
      "Ġtower": 7909,
      "lder": 7910,
      "Ġhosting": 7911,
      "Ġmirror": 7912,
      "Ġinn": 7913,
      "aligned": 7914,
      "Ġ},": 7915,
      "ander": 7916,
      "Ġfocuses": 7917,
      "abul": 7918,
      "ĠSE": 7919,
      "Ġperception": 7920,
      "Ċĉĉĉĉ": 7921,
      "56": 7922,
      "Def": 7923,
      "vious": 7924,
      "Ġult": 7925,
      "estic": 7926,
      "ĠMus": 7927,
      "ago": 7928,
      "ĠException": 7929,
      "ROM": 7930,
      "Ġrecon": 7931,
      "aby": 7932,
      "Ġaccident": 7933,
      "tract": 7934,
      "Ġdownload": 7935,
      "Ġtells": 7936,
      "Ġbag": 7937,
      "ĠComb": 7938,
      "300": 7939,
      "ho": 7940,
      "Ġ`[": 7941,
      "Ġcancer": 7942,
      "Ġsophistic": 7943,
      "gar": 7944,
      "roud": 7945,
      "Ġreturning": 7946,
      "Ġdisappe": 7947,
      "Ġrotation": 7948,
      "gent": 7949,
      "ĠTry": 7950,
      "abil": 7951,
      "Ġpolitical": 7952,
      "Ġendless": 7953,
      "Ġinfer": 7954,
      "suming": 7955,
      "Ġeliminate": 7956,
      "lin": 7957,
      "plements": 7958,
      "Ġfle": 7959,
      "Ġharsh": 7960,
      "ĠInitial": 7961,
      "Ġthrilling": 7962,
      "Ġcrisis": 7963,
      "mu": 7964,
      "week": 7965,
      "apping": 7966,
      "76": 7967,
      "hecks": 7968,
      "Ġdepression": 7969,
      "Ġwinning": 7970,
      "Ġappropriate": 7971,
      "bles": 7972,
      "Ġyog": 7973,
      "Ġvulnerability": 7974,
      "Ġestimated": 7975,
      "message": 7976,
      "2022": 7977,
      "Ġnotion": 7978,
      "Ġclassical": 7979,
      "Ġ2013": 7980,
      "ographics": 7981,
      "Ġholid": 7982,
      "Ġtrouble": 7983,
      "Ġkil": 7984,
      "cribed": 7985,
      "Ġundersc": 7986,
      "ora": 7987,
      "Ġincom": 7988,
      "-$": 7989,
      "Retrie": 7990,
      "Ġreserv": 7991,
      "Ġfinish": 7992,
      "verb": 7993,
      "Ġexposure": 7994,
      "ygen": 7995,
      "Ġauthors": 7996,
      "area": 7997,
      "Ġadvantages": 7998,
      "Ġromantic": 7999,
      "ĠAustral": 8000,
      "Ġmarked": 8001,
      "Ġperformed": 8002,
      "Ġtapestry": 8003,
      "ĠAnt": 8004,
      "Ġteach": 8005,
      "ĠMonday": 8006,
      "Ġinvestigate": 8007,
      "istry": 8008,
      "Ġmoved": 8009,
      "coordin": 8010,
      "Ġtransactions": 8011,
      "Ġanalog": 8012,
      "weight": 8013,
      "specific": 8014,
      "FF": 8015,
      "ĠPlan": 8016,
      "Ġarbitr": 8017,
      "return": 8018,
      "Fact": 8019,
      "Ġcounting": 8020,
      "39": 8021,
      "Max": 8022,
      "Ġhierarch": 8023,
      "Ġmultifaceted": 8024,
      "tered": 8025,
      "Ġdrop": 8026,
      "oles": 8027,
      "Ġwelcome": 8028,
      "eases": 8029,
      "ĠStep": 8030,
      "pread": 8031,
      "rific": 8032,
      "Ġpm": 8033,
      "Ġencourages": 8034,
      "Ġtall": 8035,
      "Ġwed": 8036,
      "Ġreactions": 8037,
      "Ġgro": 8038,
      "Ġmathematicians": 8039,
      "Ġexhibits": 8040,
      "Ġtechnological": 8041,
      "Ġmanifest": 8042,
      "mental": 8043,
      "Ġbringing": 8044,
      "ĠðŁĮ": 8045,
      "Ġhusband": 8046,
      "achers": 8047,
      "Ġfrag": 8048,
      "Ġcaptivating": 8049,
      "Aut": 8050,
      "ille": 8051,
      "www": 8052,
      "âĪĤ": 8053,
      "Ġpersuasive": 8054,
      "ĠItalian": 8055,
      "enty": 8056,
      "Ġmatrices": 8057,
      "Ġnormally": 8058,
      "Ġfruit": 8059,
      "Ġsubstant": 8060,
      "Ġexecute": 8061,
      "child": 8062,
      "Ġmindset": 8063,
      "Ġcomputing": 8064,
      "Ġfourth": 8065,
      "ĠApril": 8066,
      "Ġentreprene": 8067,
      "Ġlooked": 8068,
      "Ġconverges": 8069,
      "Ġvertical": 8070,
      "ĠGive": 8071,
      "Ġdelay": 8072,
      "Ġfellow": 8073,
      "QR": 8074,
      "cdots": 8075,
      "Ġhiring": 8076,
      "Ġarts": 8077,
      "hered": 8078,
      "Ġinstrument": 8079,
      "abulary": 8080,
      "ĊĠĠĠĠĠĠ": 8081,
      "Ġrecur": 8082,
      "Ġdru": 8083,
      "Ġsurprise": 8084,
      "lists": 8085,
      "implies": 8086,
      "suff": 8087,
      "Simplifying": 8088,
      "pmod": 8089,
      "adow": 8090,
      "omega": 8091,
      "Ġedits": 8092,
      "http": 8093,
      ")**": 8094,
      "Ġtransparent": 8095,
      "Ġplastic": 8096,
      "Ġdownt": 8097,
      "Ġ(\"": 8098,
      "Ġrural": 8099,
      "api": 8100,
      "Ġseemingly": 8101,
      "SQL": 8102,
      "Ġasyn": 8103,
      "Ġparks": 8104,
      "Ġexceptional": 8105,
      "iforn": 8106,
      "ĠSte": 8107,
      "Ġsnow": 8108,
      "ĠScience": 8109,
      "Sure": 8110,
      "Tube": 8111,
      "emy": 8112,
      "escribe": 8113,
      "Ġhistogram": 8114,
      "Ġthoughtful": 8115,
      "Ġrapidly": 8116,
      "iture": 8117,
      "ĠSchool": 8118,
      "ĠNULL": 8119,
      "Ġboat": 8120,
      "Ġdriver": 8121,
      "Which": 8122,
      "thread": 8123,
      "ĠProduct": 8124,
      "Ġ[[": 8125,
      "common": 8126,
      "Ġwhisper": 8127,
      "Ġcamera": 8128,
      "Ġderive": 8129,
      "Ġextended": 8130,
      "Ġrolling": 8131,
      "Ġadjacent": 8132,
      "Absolute": 8133,
      "lig": 8134,
      "close": 8135,
      "ĠAS": 8136,
      "Ġdelight": 8137,
      "Ġrandomly": 8138,
      "Ġdraws": 8139,
      "tu": 8140,
      "Ġborn": 8141,
      "Ġdust": 8142,
      "orders": 8143,
      "Ġsatisfying": 8144,
      "Ġtroub": 8145,
      "arding": 8146,
      "System": 8147,
      "Ġspecify": 8148,
      "Ġpolyg": 8149,
      "Ġcontrolled": 8150,
      "Ġstrengthen": 8151,
      "Ġdiseases": 8152,
      "Ġchaos": 8153,
      "Ġdress": 8154,
      "Ġappealing": 8155,
      "Ġopinion": 8156,
      "ĠEST": 8157,
      "Ġdistant": 8158,
      "overline": 8159,
      "ĠThursday": 8160,
      "Ġordered": 8161,
      "leading": 8162,
      "Ġimaginary": 8163,
      "Ġdevast": 8164,
      "Ġdivisors": 8165,
      "Ġleveraging": 8166,
      "Ġgrap": 8167,
      "Ġcontinuity": 8168,
      "Ġnumerator": 8169,
      "ĠDi": 8170,
      "Ġcatast": 8171,
      "Ġsail": 8172,
      "Ġdining": 8173,
      "Ġsto": 8174,
      "Ġallocate": 8175,
      "zen": 8176,
      "Ġabandoned": 8177,
      "$-": 8178,
      "plan": 8179,
      "ĠKing": 8180,
      "ifornia": 8181,
      "Ġru": 8182,
      "Ġtherefore": 8183,
      "idespread": 8184,
      "Ġpromotions": 8185,
      "itable": 8186,
      "Ġindependence": 8187,
      "ĠColl": 8188,
      "ĠMarch": 8189,
      "ĠFin": 8190,
      "Text": 8191,
      "ĠAC": 8192,
      "Ġoperators": 8193,
      "cases": 8194,
      "Ġtea": 8195,
      "Ġsingular": 8196,
      "ĠÎ¼": 8197,
      "qquad": 8198,
      "Ġintim": 8199,
      "Ġmetal": 8200,
      "Ġemerging": 8201,
      "Ġminimizing": 8202,
      "ĠCart": 8203,
      "Ġticket": 8204,
      "Ġinstitutions": 8205,
      "\\\"": 8206,
      "Ġstead": 8207,
      "Ġowners": 8208,
      "Ġlogistics": 8209,
      "Ġlandscapes": 8210,
      "Ġclarify": 8211,
      "}_{": 8212,
      "Ġminimal": 8213,
      "ptember": 8214,
      "Ġarm": 8215,
      "additional": 8216,
      "Ġunravel": 8217,
      "Check": 8218,
      "Ġgardens": 8219,
      "Ġputting": 8220,
      "ĠJanuary": 8221,
      "Ġbread": 8222,
      "Ġnation": 8223,
      "Ġmountains": 8224,
      "aze": 8225,
      "cher": 8226,
      "ĠBay": 8227,
      "scores": 8228,
      "aul": 8229,
      "arks": 8230,
      "Ġoutl": 8231,
      "Ġcorrespond": 8232,
      "model": 8233,
      "high": 8234,
      "Inst": 8235,
      "ĠPat": 8236,
      "valuable": 8237,
      "Ġtreasure": 8238,
      "Ġ&&": 8239,
      "Ġsupplies": 8240,
      "Ġpi": 8241,
      "Ġapproachable": 8242,
      "Ġoperating": 8243,
      "factor": 8244,
      "Ġnuc": 8245,
      "Ġemphasizing": 8246,
      "Ġpreferred": 8247,
      "NN": 8248,
      "ĠLyra": 8249,
      "ĠTom": 8250,
      "mented": 8251,
      "Ġcas": 8252,
      "Ġfacts": 8253,
      "Ġ72": 8254,
      "State": 8255,
      "Ġbattle": 8256,
      "CO": 8257,
      "atitude": 8258,
      "how": 8259,
      "ĠEstablish": 8260,
      "seen": 8261,
      "oto": 8262,
      "Ġemerge": 8263,
      "ocket": 8264,
      "Ġoverwhelmed": 8265,
      "Ġanom": 8266,
      "nel": 8267,
      "Ġspell": 8268,
      "Ġapples": 8269,
      "Ġrecycling": 8270,
      "Ġvegetables": 8271,
      "Ġvocabulary": 8272,
      "Ġbuck": 8273,
      "Ġvarying": 8274,
      "ĠPeople": 8275,
      "Ġmanaged": 8276,
      "Each": 8277,
      "Ġmultiplying": 8278,
      "ĠFile": 8279,
      "Ġperfectly": 8280,
      "xi": 8281,
      "Ġcleaning": 8282,
      "usiness": 8283,
      "Ġdefines": 8284,
      "Ġfruits": 8285,
      "icy": 8286,
      "Ġperimeter": 8287,
      "ployment": 8288,
      "Ġaccessibility": 8289,
      "Ġtends": 8290,
      "Ġfees": 8291,
      "Ġinvite": 8292,
      "pair": 8293,
      "Ġcloud": 8294,
      "Ġpossibly": 8295,
      "ĠĠĠĠĠĠĠĠĠĠĠ": 8296,
      "Ġbusy": 8297,
      "Ġmeasured": 8298,
      "ĠDev": 8299,
      "ĠTwitter": 8300,
      "Ġsocietal": 8301,
      "cm": 8302,
      "Ġentities": 8303,
      "Ġdiffer": 8304,
      "Char": 8305,
      "ker": 8306,
      "Ġwinter": 8307,
      "ecd": 8308,
      "plicity": 8309,
      "iene": 8310,
      "Michael": 8311,
      "Ġdefinitely": 8312,
      "Ġstakes": 8313,
      "Ġanecd": 8314,
      "ĠUp": 8315,
      "Ġconsumers": 8316,
      "enu": 8317,
      "Ġinvaluable": 8318,
      "Ġdebate": 8319,
      "Ġresearcher": 8320,
      "Ġpreparing": 8321,
      "ABC": 8322,
      "Ġtheore": 8323,
      "ĠForm": 8324,
      "ythag": 8325,
      "Ġmechanism": 8326,
      "Ġfert": 8327,
      "Ġflawed": 8328,
      "Ġbodies": 8329,
      "Considering": 8330,
      "Ġtom": 8331,
      "Ġstuck": 8332,
      "Ġprefix": 8333,
      "âĢĶ": 8334,
      "chol": 8335,
      "Ġhandles": 8336,
      "Ġcycl": 8337,
      "Absolutely": 8338,
      "alities": 8339,
      "Ġresistance": 8340,
      "Ġthank": 8341,
      "Ġwindows": 8342,
      "Ġsupernatural": 8343,
      "hour": 8344,
      "Ġunable": 8345,
      "ĠYouTube": 8346,
      "Ġchildhood": 8347,
      "ĠMean": 8348,
      "fered": 8349,
      "Ġfulfill": 8350,
      "ĠMethod": 8351,
      "Ġkid": 8352,
      "Object": 8353,
      "Ġvot": 8354,
      "Ġdistinction": 8355,
      "unique": 8356,
      "exec": 8357,
      "ĠAugust": 8358,
      "Ġwidespread": 8359,
      "ĠHouse": 8360,
      "Ġisolate": 8361,
      "Ġcro": 8362,
      "Ġnerv": 8363,
      "Ġforcing": 8364,
      "Ġease": 8365,
      "Ġstood": 8366,
      "Ġscored": 8367,
      "Ġformulas": 8368,
      "aturday": 8369,
      "Ġexperiments": 8370,
      "erb": 8371,
      "Ġromance": 8372,
      "ateful": 8373,
      "una": 8374,
      "arest": 8375,
      "mean": 8376,
      "Ġactively": 8377,
      "Ġgradually": 8378,
      "Ġproposition": 8379,
      "Case": 8380,
      "ĠPal": 8381,
      "Ġprocedures": 8382,
      "DA": 8383,
      "Ġascending": 8384,
      "Ġformation": 8385,
      "parency": 8386,
      "Ġspons": 8387,
      "Ġexhaust": 8388,
      "Ġgrown": 8389,
      "cipal": 8390,
      "Ġ2020": 8391,
      "security": 8392,
      "rab": 8393,
      "worth": 8394,
      "rance": 8395,
      "Ġoffered": 8396,
      "verts": 8397,
      "ĠAccount": 8398,
      "ĠHam": 8399,
      "Ġbirds": 8400,
      "ports": 8401,
      "oices": 8402,
      "Ġsoul": 8403,
      "Queue": 8404,
      "non": 8405,
      "iewer": 8406,
      "}:": 8407,
      "ĠInternational": 8408,
      "Ġasks": 8409,
      "Ġbranch": 8410,
      "igned": 8411,
      "Ġboundary": 8412,
      "ocolate": 8413,
      "Ġhob": 8414,
      "Ġgenre": 8415,
      "additionalProperties": 8416,
      "istrib": 8417,
      "Ġpublished": 8418,
      "Ġinterviews": 8419,
      "ocument": 8420,
      "Ġpred": 8421,
      "plicable": 8422,
      "author": 8423,
      "Ġfailed": 8424,
      "Ġspring": 8425,
      "Ġgenerates": 8426,
      "Ġphilosophical": 8427,
      "Ġmeasurement": 8428,
      "Ġcategor": 8429,
      "Ġcataly": 8430,
      "Ġwarning": 8431,
      "Ġharmony": 8432,
      "ĠSum": 8433,
      "Ġmemo": 8434,
      "ercase": 8435,
      "Ġmargin": 8436,
      "Ġfactorization": 8437,
      "Ġgardening": 8438,
      "400": 8439,
      "Ġallocation": 8440,
      "ĠStr": 8441,
      "Ġdogs": 8442,
      "Ġoxygen": 8443,
      "150": 8444,
      "ĠIS": 8445,
      "Ġconditional": 8446,
      "Ġportion": 8447,
      "Ġrecovery": 8448,
      "Ġthreats": 8449,
      "Ġstrike": 8450,
      "Ġrevise": 8451,
      "ĠII": 8452,
      "ĠKy": 8453,
      "Ġgrade": 8454,
      "Ġagriculture": 8455,
      "Ġsubjects": 8456,
      "DD": 8457,
      "Le": 8458,
      "Ġeerie": 8459,
      "';": 8460,
      "Ġnative": 8461,
      "ifferent": 8462,
      "Ġbill": 8463,
      "style": 8464,
      "ruption": 8465,
      "Ġpartners": 8466,
      "Ġsuppl": 8467,
      "ĠFrance": 8468,
      "Ġgained": 8469,
      "status": 8470,
      "ĠEqu": 8471,
      "Ġpanels": 8472,
      "Ġedited": 8473,
      "body": 8474,
      "ĠPrint": 8475,
      "ĊĠĠĠĠĠĠĠĠĊĠĠĠĠĠĠĠ": 8476,
      "Ġapparent": 8477,
      "Ġpasses": 8478,
      "Ġrewarding": 8479,
      "ĠError": 8480,
      "Ġgenerator": 8481,
      "Ġcharming": 8482,
      "ĠâĪļ(": 8483,
      "Ġlic": 8484,
      "Ġdecay": 8485,
      "Ġattached": 8486,
      "Comput": 8487,
      "anches": 8488,
      "Ġnavigation": 8489,
      "Ġaffecting": 8490,
      "ĠEngland": 8491,
      "ĠEnc": 8492,
      "ĠEmphas": 8493,
      "Ġfrequencies": 8494,
      "Ġfriendship": 8495,
      "Ġinconsistencies": 8496,
      "Ġvia": 8497,
      "Ġportray": 8498,
      "Form": 8499,
      "hicle": 8500,
      "Ġproud": 8501,
      "Ġexplored": 8502,
      "Ġflavors": 8503,
      "Test": 8504,
      "icago": 8505,
      "ocate": 8506,
      "456": 8507,
      "ĠWhich": 8508,
      "ythagorean": 8509,
      "Ġsuc": 8510,
      "Ġjump": 8511,
      "Ġcaut": 8512,
      "Ġgrab": 8513,
      "Ġsubsets": 8514,
      "They": 8515,
      "Ġcomma": 8516,
      "Ġdevelopers": 8517,
      "Ġprimarily": 8518,
      "Ġtag": 8519,
      "Then": 8520,
      "Ġcautious": 8521,
      "days": 8522,
      "Ġuniversity": 8523,
      "Ġremarkable": 8524,
      "Ġmatters": 8525,
      "Ġfalls": 8526,
      "auses": 8527,
      "Ġprivile": 8528,
      "Ġempower": 8529,
      "ĠRiver": 8530,
      "ĠGrand": 8531,
      "ordan": 8532,
      "Ġdemands": 8533,
      "but": 8534,
      "Ġmidpoint": 8535,
      "Ġhoping": 8536,
      "Ġunpredictable": 8537,
      "Ġchances": 8538,
      "ĠOb": 8539,
      "Ġproduced": 8540,
      "Item": 8541,
      "Ġmisu": 8542,
      "Ġending": 8543,
      "Ġversions": 8544,
      "Ġcollections": 8545,
      "Ġmythology": 8546,
      "Ġmanufacture": 8547,
      ".\"\"\"": 8548,
      "aker": 8549,
      "Ġholes": 8550,
      "MS": 8551,
      "inu": 8552,
      "esian": 8553,
      "Ġouts": 8554,
      "Ġoccas": 8555,
      "ION": 8556,
      "ustling": 8557,
      "mathrm": 8558,
      "ĠGreek": 8559,
      "Ġclosest": 8560,
      "ĠCP": 8561,
      "Ġplus": 8562,
      "ads": 8563,
      "issors": 8564,
      "Ġpreparation": 8565,
      "ois": 8566,
      "ĠWrite": 8567,
      "Ġfluctuations": 8568,
      "ĠÎ»": 8569,
      "Ġnumpy": 8570,
      "Ġyes": 8571,
      "Ġvisually": 8572,
      "Ġpacing": 8573,
      "Ġbool": 8574,
      "ĠNet": 8575,
      "Ġstating": 8576,
      "Ġconcision": 8577,
      "[-": 8578,
      "Ġunfor": 8579,
      "Empty": 8580,
      "Ġbounded": 8581,
      "aylor": 8582,
      "Ġflights": 8583,
      "Ġdesigning": 8584,
      "Ġnorms": 8585,
      "Ġnearly": 8586,
      "inder": 8587,
      "Ġmilk": 8588,
      "Ġvend": 8589,
      "Ġwearing": 8590,
      "Ġâī¥": 8591,
      "Index": 8592,
      "07": 8593,
      "{-": 8594,
      "ĠĊĠĠĠ": 8595,
      "Ġwellness": 8596,
      "Ġ</": 8597,
      "elsius": 8598,
      "ĠSoph": 8599,
      "Ġdetection": 8600,
      "ioms": 8601,
      "ĠDec": 8602,
      "Ġprotein": 8603,
      "EN": 8604,
      "Ġlun": 8605,
      "Ġluck": 8606,
      "Ġgone": 8607,
      "Ġintent": 8608,
      "Ġpersist": 8609,
      "Ġartwork": 8610,
      "Ġsubsequent": 8611,
      "Ġ2012": 8612,
      "========": 8613,
      "well": 8614,
      "ĠAlice": 8615,
      "ĠQueue": 8616,
      "Ġgenetic": 8617,
      "Ġtrigon": 8618,
      "Ġdeals": 8619,
      "Ġquotient": 8620,
      "enqueue": 8621,
      "ogether": 8622,
      "Ġunderm": 8623,
      "Ġdrag": 8624,
      "conomic": 8625,
      "Ġsacrific": 8626,
      "Ġsending": 8627,
      "amil": 8628,
      "uls": 8629,
      "sume": 8630,
      "Ġfractions": 8631,
      "Ġpushing": 8632,
      "Ġghost": 8633,
      "Ġ\\,": 8634,
      "Ġouter": 8635,
      "Ġsale": 8636,
      "Ġspin": 8637,
      "ĠUt": 8638,
      "Ġamen": 8639,
      "Ġvillain": 8640,
      "Ġconfiguration": 8641,
      "Ġdot": 8642,
      "Ġaddressed": 8643,
      "prefix": 8644,
      "ii": 8645,
      "ession": 8646,
      "ĠEven": 8647,
      "ĠLine": 8648,
      "Ġcooperation": 8649,
      "Ġod": 8650,
      "Ġlst": 8651,
      "Ġvs": 8652,
      "Ġclin": 8653,
      "Ġcorrected": 8654,
      "covery": 8655,
      "riv": 8656,
      "Ġdiscrete": 8657,
      "Ġinspiring": 8658,
      "Area": 8659,
      "AI": 8660,
      "Ġ?": 8661,
      "Ġcab": 8662,
      "ĠNon": 8663,
      "Ġemphasizes": 8664,
      "tling": 8665,
      "Ġmere": 8666,
      "ushed": 8667,
      "Ġhistoric": 8668,
      "parse": 8669,
      "rates": 8670,
      "omb": 8671,
      "Ġobserving": 8672,
      "Ġconsciousness": 8673,
      "essel": 8674,
      "Str": 8675,
      "ĠDoe": 8676,
      "Ġprotocols": 8677,
      "Ġbird": 8678,
      "Ġsilence": 8679,
      "gypt": 8680,
      "zed": 8681,
      "Ġweights": 8682,
      "Ġassessment": 8683,
      "ĠSeptember": 8684,
      "ĠBook": 8685,
      "*}": 8686,
      "uk": 8687,
      "Ġscientist": 8688,
      "Ġsucceed": 8689,
      "yr": 8690,
      "Ġmal": 8691,
      "ĠCalifornia": 8692,
      "even": 8693,
      "Ġorth": 8694,
      "Ġsolved": 8695,
      "Ġredund": 8696,
      "ĠHol": 8697,
      "Ġregul": 8698,
      "Ġfootprint": 8699,
      "Ġharmonic": 8700,
      "Ġdut": 8701,
      "ruit": 8702,
      "ĠAny": 8703,
      "Ġadjusting": 8704,
      "ĠClass": 8705,
      "just": 8706,
      "Ġhousehold": 8707,
      "Ġenumerate": 8708,
      "overn": 8709,
      "Ġdebt": 8710,
      "Ġconvin": 8711,
      "Ġban": 8712,
      "Ġhappening": 8713,
      "Ġassigned": 8714,
      "Ġexcessive": 8715,
      "Ġtemporary": 8716,
      ":\")": 8717,
      "Ġburd": 8718,
      "Ġunlock": 8719,
      "Ġaccum": 8720,
      "Ġtravelers": 8721,
      "Ġdocumentation": 8722,
      "Ġintuition": 8723,
      "Ġalle": 8724,
      "method": 8725,
      "Ġunderstood": 8726,
      "ellect": 8727,
      "rot": 8728,
      "Ġlunch": 8729,
      "Ġbeings": 8730,
      "Ġ33": 8731,
      "Ġcaf": 8732,
      "ierce": 8733,
      "Ġcircular": 8734,
      "Ġforever": 8735,
      "Ġtrauma": 8736,
      "Ġfaithfully": 8737,
      "ãĢ": 8738,
      "Ġdied": 8739,
      "Ġsignals": 8740,
      "Ġreadable": 8741,
      "Ġeggs": 8742,
      "Ġtutor": 8743,
      "ilter": 8744,
      "ĠHall": 8745,
      "Ġcovers": 8746,
      "ĠPresident": 8747,
      "ĠSpe": 8748,
      "Ġteachers": 8749,
      "ttp": 8750,
      "Ġestate": 8751,
      "Ġmovies": 8752,
      "last": 8753,
      "Ġstated": 8754,
      "ĠPythagorean": 8755,
      "ryption": 8756,
      "Ġrising": 8757,
      "Ġweekend": 8758,
      "Ġanti": 8759,
      "Ġsubstantial": 8760,
      "Ġtun": 8761,
      "Ġinterpre": 8762,
      "Ġfurn": 8763,
      "Ġunderwater": 8764,
      "Ġpresents": 8765,
      "ĠArgs": 8766,
      "display": 8767,
      "unks": 8768,
      "54": 8769,
      "Ġhole": 8770,
      "Ġrit": 8771,
      "Ġsector": 8772,
      "Ġteen": 8773,
      "Ġheavier": 8774,
      "event": 8775,
      "gue": 8776,
      "}]": 8777,
      "Ġencountered": 8778,
      "ĠWho": 8779,
      "Ġpassionate": 8780,
      "Rem": 8781,
      "Ġhuge": 8782,
      "Ġguides": 8783,
      "Ġlandmarks": 8784,
      "Ġdecreasing": 8785,
      "Ed": 8786,
      "Ġgun": 8787,
      "aped": 8788,
      "Ġlabels": 8789,
      "Ġsmoothly": 8790,
      "02": 8791,
      "Ġamazing": 8792,
      "ĠSaturday": 8793,
      "Ġshipping": 8794,
      "player": 8795,
      "Ġinstruction": 8796,
      "Ġ`__": 8797,
      "ĠJuly": 8798,
      "Ġintegrity": 8799,
      "FT": 8800,
      "Fe": 8801,
      "ano": 8802,
      "versely": 8803,
      "ĠConference": 8804,
      "Ġreviewing": 8805,
      "Ġclassroom": 8806,
      "Ġflood": 8807,
      "Ġshowed": 8808,
      "minute": 8809,
      "Ġbranches": 8810,
      ")}{": 8811,
      "uman": 8812,
      "Cor": 8813,
      "aver": 8814,
      "Ġauthorities": 8815,
      "Ġvelocity": 8816,
      "dir": 8817,
      "ĠPoint": 8818,
      "Ġbreakdown": 8819,
      "Ġdeadlines": 8820,
      "iances": 8821,
      "Ġeigenvalues": 8822,
      "ĠSund": 8823,
      "Ġdeterminant": 8824,
      "Ġunclear": 8825,
      "Ġzeros": 8826,
      "Ġroutes": 8827,
      "Ġpanel": 8828,
      "Ġtrib": 8829,
      "Ġgalaxy": 8830,
      "Ġneutral": 8831,
      "amm": 8832,
      "appoint": 8833,
      "Ġspacetime": 8834,
      "Ġcontradiction": 8835,
      "Ġscr": 8836,
      "Ġuncertain": 8837,
      "ĠShare": 8838,
      "Ġtheoretical": 8839,
      "Ġgrammatical": 8840,
      "Solving": 8841,
      "Ġcash": 8842,
      "Ġmonot": 8843,
      "Ġratings": 8844,
      "ividing": 8845,
      "quare": 8846,
      "ĠEgypt": 8847,
      "Ġaest": 8848,
      "Ġfinished": 8849,
      "Ġbiology": 8850,
      "Hand": 8851,
      "Ġalthough": 8852,
      "ĠHave": 8853,
      "rons": 8854,
      "Ġshall": 8855,
      "never": 8856,
      "Ġraw": 8857,
      "Ġcomputational": 8858,
      "Ġinitiative": 8859,
      "has": 8860,
      "Ġreass": 8861,
      "Avoid": 8862,
      "aming": 8863,
      "Fetch": 8864,
      "Ġsurvive": 8865,
      "estamp": 8866,
      "apers": 8867,
      "Ġbackgrounds": 8868,
      "filter": 8869,
      "Ġ42": 8870,
      "Ġeducators": 8871,
      "Ġovers": 8872,
      "Ġmanufacturing": 8873,
      "OS": 8874,
      "ya": 8875,
      "Ġkilled": 8876,
      "Ġdiscoveries": 8877,
      "bb": 8878,
      "oven": 8879,
      "Ġwooden": 8880,
      "Ġdoctor": 8881,
      "ĠĠĠĠĠĠĠĠĠĠĠĠĠĠĠĠĠĠĠĠĠĠĠĠĠĠĠĠĠĠĠĠ": 8882,
      "Ġmanifold": 8883,
      "uristic": 8884,
      "content": 8885,
      "Ġwaters": 8886,
      "hr": 8887,
      "Ġarrangement": 8888,
      "Ġbow": 8889,
      "Ġnice": 8890,
      "Ġnth": 8891,
      "Ġtransparency": 8892,
      "Ġrecursively": 8893,
      "roy": 8894,
      "Ġdeck": 8895,
      "Ġprinting": 8896,
      "Ġdramatic": 8897,
      "Ġmindfulness": 8898,
      "Ġwedding": 8899,
      "Ġamenities": 8900,
      "heap": 8901,
      "Ġcountless": 8902,
      "Ġmixed": 8903,
      "Book": 8904,
      "Ġcere": 8905,
      "Ġvisibility": 8906,
      "Ġrespectful": 8907,
      "Ġunch": 8908,
      "jective": 8909,
      "Ġdecades": 8910,
      "Ġperiodic": 8911,
      "Ġversus": 8912,
      "Ġenjoyed": 8913,
      "Ġtale": 8914,
      "Ġnick": 8915,
      "Ġcomplic": 8916,
      "ĠVer": 8917,
      "Ġgrateful": 8918,
      "Ġdy": 8919,
      "ĠJen": 8920,
      "Ġsurfaces": 8921,
      "Ġopened": 8922,
      "riginal": 8923,
      "Ã¶": 8924,
      "interest": 8925,
      "Ġnuances": 8926,
      "Ġexplained": 8927,
      "Ġpartnering": 8928,
      "Ġtailor": 8929,
      "ĠTaylor": 8930,
      "ĠOff": 8931,
      "Ġawait": 8932,
      "Ġswim": 8933,
      "banana": 8934,
      "Ġshifts": 8935,
      "Ġpd": 8936,
      "Ġsettle": 8937,
      "connection": 8938,
      "Ġdemographics": 8939,
      "Ġmisleading": 8940,
      "Ġcryptography": 8941,
      "68": 8942,
      "Par": 8943,
      "Ġreasonable": 8944,
      "Ġproactive": 8945,
      "Think": 8946,
      "Ġoccurring": 8947,
      "Ġlegal": 8948,
      "Ġbelieved": 8949,
      "Ġstretch": 8950,
      "Ġtiny": 8951,
      "ette": 8952,
      "Ġ52": 8953,
      "Ġgrasp": 8954,
      "Ġrephrasing": 8955,
      "binom": 8956,
      "}'": 8957,
      "ĠLast": 8958,
      "Ġnod": 8959,
      "Ġstages": 8960,
      "ĠAR": 8961,
      "than": 8962,
      "Ġdemonstrating": 8963,
      "Ġwalked": 8964,
      "ĠCalcul": 8965,
      "Ġinvari": 8966,
      "Ġextends": 8967,
      "ĠAnother": 8968,
      "Ġharder": 8969,
      "card": 8970,
      "Ġstations": 8971,
      "Ġcontributed": 8972,
      "mas": 8973,
      "Ġpropose": 8974,
      "Ġnetworking": 8975,
      "ford": 8976,
      "Ġunsure": 8977,
      ")|": 8978,
      "Ġintensity": 8979,
      "Ġequally": 8980,
      "Ġphoto": 8981,
      "Ġfloating": 8982,
      "holder": 8983,
      "Ġanalytical": 8984,
      "limit": 8985,
      ")!": 8986,
      "Ġperceptions": 8987,
      "Ġpointers": 8988,
      "Ġloops": 8989,
      "Ġrephrase": 8990,
      "Pass": 8991,
      "ula": 8992,
      "Ġphilosophy": 8993,
      "ĠHTML": 8994,
      "earning": 8995,
      "Ġhat": 8996,
      "Ġfrequent": 8997,
      "falls": 8998,
      ".\");": 8999,
      "ventional": 9000,
      "Ġpictures": 9001,
      "Ġsorry": 9002,
      "oil": 9003,
      "ĠPay": 9004,
      "Ġshoes": 9005,
      "Ġsan": 9006,
      "users": 9007,
      "ieval": 9008,
      "Ġvan": 9009,
      "Ġrevisions": 9010,
      "cat": 9011,
      "ĠIndex": 9012,
      "replace": 9013,
      "athered": 9014,
      "cember": 9015,
      "Ġmatching": 9016,
      "Ġvacation": 9017,
      "ĠCode": 9018,
      "ĠWind": 9019,
      "Ġinterplay": 9020,
      "nings": 9021,
      "hether": 9022,
      "Ġpy": 9023,
      "Ġreceiving": 9024,
      "Ġbulbs": 9025,
      "89": 9026,
      "brid": 9027,
      "Ġtense": 9028,
      "Ġfoss": 9029,
      "Ġtrail": 9030,
      "ij": 9031,
      "Ġfoods": 9032,
      "ĠÎ²": 9033,
      "Ġrobot": 9034,
      "Ġfarmers": 9035,
      "%,": 9036,
      "72": 9037,
      "Ġ56": 9038,
      "Ġelim": 9039,
      "Ġforeign": 9040,
      "ĠArch": 9041,
      "SELECT": 9042,
      "mother": 9043,
      "Ġcentered": 9044,
      "Mon": 9045,
      "tim": 9046,
      "umes": 9047,
      "Ġexit": 9048,
      "Ġcharity": 9049,
      "Ġtrained": 9050,
      "Ġchick": 9051,
      "Ġparties": 9052,
      "Ġhyperbol": 9053,
      "ĠRachel": 9054,
      "cluded": 9055,
      "---": 9056,
      "Ġsophisticated": 9057,
      "Ġbits": 9058,
      "abc": 9059,
      "Ġinviting": 9060,
      "umps": 9061,
      "eling": 9062,
      "Ġ49": 9063,
      "deg": 9064,
      "xic": 9065,
      "Ġath": 9066,
      "eration": 9067,
      "Dep": 9068,
      "Ġlake": 9069,
      "ober": 9070,
      ")):": 9071,
      "ĠDiv": 9072,
      "ometry": 9073,
      "Ġconducting": 9074,
      "({": 9075,
      "Ġmo": 9076,
      "Ġbike": 9077,
      "ederal": 9078,
      "Ġimplements": 9079,
      "Ġcompound": 9080,
      "Ġbars": 9081,
      "Ġling": 9082,
      "ulative": 9083,
      "120": 9084,
      "Ġhiding": 9085,
      "Ġbelonging": 9086,
      "amine": 9087,
      "Ġweave": 9088,
      "Ġidentifier": 9089,
      "Ġtraveler": 9090,
      "Ġpolar": 9091,
      "itudes": 9092,
      "Ġlegacy": 9093,
      "afe": 9094,
      "rophic": 9095,
      "Ġvir": 9096,
      "Rep": 9097,
      "palindrome": 9098,
      "riving": 9099,
      "Ġsubgroup": 9100,
      "drop": 9101,
      "ĠEvery": 9102,
      "ĠItaly": 9103,
      "Ġfaint": 9104,
      "Ġserved": 9105,
      "Ġdifficulty": 9106,
      "Ġinduction": 9107,
      "pse": 9108,
      "formance": 9109,
      "ĠGr": 9110,
      "Am": 9111,
      "Person": 9112,
      "Ġtast": 9113,
      "Ġdice": 9114,
      "Ġkept": 9115,
      "Ġinfluences": 9116,
      "ĠApple": 9117,
      "ulpt": 9118,
      "ĠOct": 9119,
      "country": 9120,
      "Ġalongside": 9121,
      "ĠTypeError": 9122,
      "Ġanticipation": 9123,
      "Ġsculpt": 9124,
      "ropy": 9125,
      "Mat": 9126,
      "kin": 9127,
      "power": 9128,
      "eps": 9129,
      "cur": 9130,
      "Ġwond": 9131,
      "Ġnotation": 9132,
      "Ġstartup": 9133,
      "ĠÏĥ": 9134,
      "Ġsteady": 9135,
      "Map": 9136,
      "ĠDuring": 9137,
      "Ġelli": 9138,
      "ĠDNA": 9139,
      "Ġinstallation": 9140,
      "Ġmentor": 9141,
      "Answer": 9142,
      "Ġexpressing": 9143,
[...]
